[PAD] 1
[unused0] 1
[unused1] 1
[unused2] 1
[unused3] 1
[unused4] 1
[unused5] 1
[unused6] 1
[unused7] 1
[unused8] 1
[unused9] 1
[unused10] 1
[unused11] 1
[unused12] 1
[unused13] 1
[unused14] 1
[unused15] 1
[unused16] 1
[unused17] 1
[unused18] 1
[unused19] 1
[unused20] 1
[unused21] 1
[unused22] 1
[unused23] 1
[unused24] 1
[unused25] 1
[unused26] 1
[unused27] 1
[unused28] 1
[unused29] 1
[unused30] 1
[unused31] 1
[unused32] 1
[unused33] 1
[unused34] 1
[unused35] 1
[unused36] 1
[unused37] 1
[unused38] 1
[unused39] 1
[unused40] 1
[unused41] 1
[unused42] 1
[unused43] 1
[unused44] 1
[unused45] 1
[unused46] 1
[unused47] 1
[unused48] 1
[unused49] 1
[unused50] 1
[unused51] 1
[unused52] 1
[unused53] 1
[unused54] 1
[unused55] 1
[unused56] 1
[unused57] 1
[unused58] 1
[unused59] 1
[unused60] 1
[unused61] 1
[unused62] 1
[unused63] 1
[unused64] 1
[unused65] 1
[unused66] 1
[unused67] 1
[unused68] 1
[unused69] 1
[unused70] 1
[unused71] 1
[unused72] 1
[unused73] 1
[unused74] 1
[unused75] 1
[unused76] 1
[unused77] 1
[unused78] 1
[unused79] 1
[unused80] 1
[unused81] 1
[unused82] 1
[unused83] 1
[unused84] 1
[unused85] 1
[unused86] 1
[unused87] 1
[unused88] 1
[unused89] 1
[unused90] 1
[unused91] 1
[unused92] 1
[unused93] 1
[unused94] 1
[unused95] 1
[unused96] 1
[unused97] 1
[unused98] 1
[UNK] 1
[CLS] 1
[SEP] 1
[MASK] 1
[unused99] 1
[unused100] 1
[unused101] 1
[unused102] 1
[unused103] 1
[unused104] 1
[unused105] 1
[unused106] 1
[unused107] 1
[unused108] 1
[unused109] 1
[unused110] 1
[unused111] 1
[unused112] 1
[unused113] 1
[unused114] 1
[unused115] 1
[unused116] 1
[unused117] 1
[unused118] 1
[unused119] 1
[unused120] 1
[unused121] 1
[unused122] 1
[unused123] 1
[unused124] 1
[unused125] 1
[unused126] 1
[unused127] 1
[unused128] 1
[unused129] 1
[unused130] 1
[unused131] 1
[unused132] 1
[unused133] 1
[unused134] 1
[unused135] 1
[unused136] 1
[unused137] 1
[unused138] 1
[unused139] 1
[unused140] 1
[unused141] 1
[unused142] 1
[unused143] 1
[unused144] 1
[unused145] 1
[unused146] 1
[unused147] 1
[unused148] 1
[unused149] 1
[unused150] 1
[unused151] 1
[unused152] 1
[unused153] 1
[unused154] 1
[unused155] 1
[unused156] 1
[unused157] 1
[unused158] 1
[unused159] 1
[unused160] 1
[unused161] 1
[unused162] 1
[unused163] 1
[unused164] 1
[unused165] 1
[unused166] 1
[unused167] 1
[unused168] 1
[unused169] 1
[unused170] 1
[unused171] 1
[unused172] 1
[unused173] 1
[unused174] 1
[unused175] 1
[unused176] 1
[unused177] 1
[unused178] 1
[unused179] 1
[unused180] 1
[unused181] 1
[unused182] 1
[unused183] 1
[unused184] 1
[unused185] 1
[unused186] 1
[unused187] 1
[unused188] 1
[unused189] 1
[unused190] 1
[unused191] 1
[unused192] 1
[unused193] 1
[unused194] 1
[unused195] 1
[unused196] 1
[unused197] 1
[unused198] 1
[unused199] 1
[unused200] 1
[unused201] 1
[unused202] 1
[unused203] 1
[unused204] 1
[unused205] 1
[unused206] 1
[unused207] 1
[unused208] 1
[unused209] 1
[unused210] 1
[unused211] 1
[unused212] 1
[unused213] 1
[unused214] 1
[unused215] 1
[unused216] 1
[unused217] 1
[unused218] 1
[unused219] 1
[unused220] 1
[unused221] 1
[unused222] 1
[unused223] 1
[unused224] 1
[unused225] 1
[unused226] 1
[unused227] 1
[unused228] 1
[unused229] 1
[unused230] 1
[unused231] 1
[unused232] 1
[unused233] 1
[unused234] 1
[unused235] 1
[unused236] 1
[unused237] 1
[unused238] 1
[unused239] 1
[unused240] 1
[unused241] 1
[unused242] 1
[unused243] 1
[unused244] 1
[unused245] 1
[unused246] 1
[unused247] 1
[unused248] 1
[unused249] 1
[unused250] 1
[unused251] 1
[unused252] 1
[unused253] 1
[unused254] 1
[unused255] 1
[unused256] 1
[unused257] 1
[unused258] 1
[unused259] 1
[unused260] 1
[unused261] 1
[unused262] 1
[unused263] 1
[unused264] 1
[unused265] 1
[unused266] 1
[unused267] 1
[unused268] 1
[unused269] 1
[unused270] 1
[unused271] 1
[unused272] 1
[unused273] 1
[unused274] 1
[unused275] 1
[unused276] 1
[unused277] 1
[unused278] 1
[unused279] 1
[unused280] 1
[unused281] 1
[unused282] 1
[unused283] 1
[unused284] 1
[unused285] 1
[unused286] 1
[unused287] 1
[unused288] 1
[unused289] 1
[unused290] 1
[unused291] 1
[unused292] 1
[unused293] 1
[unused294] 1
[unused295] 1
[unused296] 1
[unused297] 1
[unused298] 1
[unused299] 1
[unused300] 1
[unused301] 1
[unused302] 1
[unused303] 1
[unused304] 1
[unused305] 1
[unused306] 1
[unused307] 1
[unused308] 1
[unused309] 1
[unused310] 1
[unused311] 1
[unused312] 1
[unused313] 1
[unused314] 1
[unused315] 1
[unused316] 1
[unused317] 1
[unused318] 1
[unused319] 1
[unused320] 1
[unused321] 1
[unused322] 1
[unused323] 1
[unused324] 1
[unused325] 1
[unused326] 1
[unused327] 1
[unused328] 1
[unused329] 1
[unused330] 1
[unused331] 1
[unused332] 1
[unused333] 1
[unused334] 1
[unused335] 1
[unused336] 1
[unused337] 1
[unused338] 1
[unused339] 1
[unused340] 1
[unused341] 1
[unused342] 1
[unused343] 1
[unused344] 1
[unused345] 1
[unused346] 1
[unused347] 1
[unused348] 1
[unused349] 1
[unused350] 1
[unused351] 1
[unused352] 1
[unused353] 1
[unused354] 1
[unused355] 1
[unused356] 1
[unused357] 1
[unused358] 1
[unused359] 1
[unused360] 1
[unused361] 1
[unused362] 1
[unused363] 1
[unused364] 1
[unused365] 1
[unused366] 1
[unused367] 1
[unused368] 1
[unused369] 1
[unused370] 1
[unused371] 1
[unused372] 1
[unused373] 1
[unused374] 1
[unused375] 1
[unused376] 1
[unused377] 1
[unused378] 1
[unused379] 1
[unused380] 1
[unused381] 1
[unused382] 1
[unused383] 1
[unused384] 1
[unused385] 1
[unused386] 1
[unused387] 1
[unused388] 1
[unused389] 1
[unused390] 1
[unused391] 1
[unused392] 1
[unused393] 1
[unused394] 1
[unused395] 1
[unused396] 1
[unused397] 1
[unused398] 1
[unused399] 1
[unused400] 1
[unused401] 1
[unused402] 1
[unused403] 1
[unused404] 1
[unused405] 1
[unused406] 1
[unused407] 1
[unused408] 1
[unused409] 1
[unused410] 1
[unused411] 1
[unused412] 1
[unused413] 1
[unused414] 1
[unused415] 1
[unused416] 1
[unused417] 1
[unused418] 1
[unused419] 1
[unused420] 1
[unused421] 1
[unused422] 1
[unused423] 1
[unused424] 1
[unused425] 1
[unused426] 1
[unused427] 1
[unused428] 1
[unused429] 1
[unused430] 1
[unused431] 1
[unused432] 1
[unused433] 1
[unused434] 1
[unused435] 1
[unused436] 1
[unused437] 1
[unused438] 1
[unused439] 1
[unused440] 1
[unused441] 1
[unused442] 1
[unused443] 1
[unused444] 1
[unused445] 1
[unused446] 1
[unused447] 1
[unused448] 1
[unused449] 1
[unused450] 1
[unused451] 1
[unused452] 1
[unused453] 1
[unused454] 1
[unused455] 1
[unused456] 1
[unused457] 1
[unused458] 1
[unused459] 1
[unused460] 1
[unused461] 1
[unused462] 1
[unused463] 1
[unused464] 1
[unused465] 1
[unused466] 1
[unused467] 1
[unused468] 1
[unused469] 1
[unused470] 1
[unused471] 1
[unused472] 1
[unused473] 1
[unused474] 1
[unused475] 1
[unused476] 1
[unused477] 1
[unused478] 1
[unused479] 1
[unused480] 1
[unused481] 1
[unused482] 1
[unused483] 1
[unused484] 1
[unused485] 1
[unused486] 1
[unused487] 1
[unused488] 1
[unused489] 1
[unused490] 1
[unused491] 1
[unused492] 1
[unused493] 1
[unused494] 1
[unused495] 1
[unused496] 1
[unused497] 1
[unused498] 1
[unused499] 1
[unused500] 1
[unused501] 1
[unused502] 1
[unused503] 1
[unused504] 1
[unused505] 1
[unused506] 1
[unused507] 1
[unused508] 1
[unused509] 1
[unused510] 1
[unused511] 1
[unused512] 1
[unused513] 1
[unused514] 1
[unused515] 1
[unused516] 1
[unused517] 1
[unused518] 1
[unused519] 1
[unused520] 1
[unused521] 1
[unused522] 1
[unused523] 1
[unused524] 1
[unused525] 1
[unused526] 1
[unused527] 1
[unused528] 1
[unused529] 1
[unused530] 1
[unused531] 1
[unused532] 1
[unused533] 1
[unused534] 1
[unused535] 1
[unused536] 1
[unused537] 1
[unused538] 1
[unused539] 1
[unused540] 1
[unused541] 1
[unused542] 1
[unused543] 1
[unused544] 1
[unused545] 1
[unused546] 1
[unused547] 1
[unused548] 1
[unused549] 1
[unused550] 1
[unused551] 1
[unused552] 1
[unused553] 1
[unused554] 1
[unused555] 1
[unused556] 1
[unused557] 1
[unused558] 1
[unused559] 1
[unused560] 1
[unused561] 1
[unused562] 1
[unused563] 1
[unused564] 1
[unused565] 1
[unused566] 1
[unused567] 1
[unused568] 1
[unused569] 1
[unused570] 1
[unused571] 1
[unused572] 1
[unused573] 1
[unused574] 1
[unused575] 1
[unused576] 1
[unused577] 1
[unused578] 1
[unused579] 1
[unused580] 1
[unused581] 1
[unused582] 1
[unused583] 1
[unused584] 1
[unused585] 1
[unused586] 1
[unused587] 1
[unused588] 1
[unused589] 1
[unused590] 1
[unused591] 1
[unused592] 1
[unused593] 1
[unused594] 1
[unused595] 1
[unused596] 1
[unused597] 1
[unused598] 1
[unused599] 1
[unused600] 1
[unused601] 1
[unused602] 1
[unused603] 1
[unused604] 1
[unused605] 1
[unused606] 1
[unused607] 1
[unused608] 1
[unused609] 1
[unused610] 1
[unused611] 1
[unused612] 1
[unused613] 1
[unused614] 1
[unused615] 1
[unused616] 1
[unused617] 1
[unused618] 1
[unused619] 1
[unused620] 1
[unused621] 1
[unused622] 1
[unused623] 1
[unused624] 1
[unused625] 1
[unused626] 1
[unused627] 1
[unused628] 1
[unused629] 1
[unused630] 1
[unused631] 1
[unused632] 1
[unused633] 1
[unused634] 1
[unused635] 1
[unused636] 1
[unused637] 1
[unused638] 1
[unused639] 1
[unused640] 1
[unused641] 1
[unused642] 1
[unused643] 1
[unused644] 1
[unused645] 1
[unused646] 1
[unused647] 1
[unused648] 1
[unused649] 1
[unused650] 1
[unused651] 1
[unused652] 1
[unused653] 1
[unused654] 1
[unused655] 1
[unused656] 1
[unused657] 1
[unused658] 1
[unused659] 1
[unused660] 1
[unused661] 1
[unused662] 1
[unused663] 1
[unused664] 1
[unused665] 1
[unused666] 1
[unused667] 1
[unused668] 1
[unused669] 1
[unused670] 1
[unused671] 1
[unused672] 1
[unused673] 1
[unused674] 1
[unused675] 1
[unused676] 1
[unused677] 1
[unused678] 1
[unused679] 1
[unused680] 1
[unused681] 1
[unused682] 1
[unused683] 1
[unused684] 1
[unused685] 1
[unused686] 1
[unused687] 1
[unused688] 1
[unused689] 1
[unused690] 1
[unused691] 1
[unused692] 1
[unused693] 1
[unused694] 1
[unused695] 1
[unused696] 1
[unused697] 1
[unused698] 1
[unused699] 1
[unused700] 1
[unused701] 1
[unused702] 1
[unused703] 1
[unused704] 1
[unused705] 1
[unused706] 1
[unused707] 1
[unused708] 1
[unused709] 1
[unused710] 1
[unused711] 1
[unused712] 1
[unused713] 1
[unused714] 1
[unused715] 1
[unused716] 1
[unused717] 1
[unused718] 1
[unused719] 1
[unused720] 1
[unused721] 1
[unused722] 1
[unused723] 1
[unused724] 1
[unused725] 1
[unused726] 1
[unused727] 1
[unused728] 1
[unused729] 1
[unused730] 1
[unused731] 1
[unused732] 1
[unused733] 1
[unused734] 1
[unused735] 1
[unused736] 1
[unused737] 1
[unused738] 1
[unused739] 1
[unused740] 1
[unused741] 1
[unused742] 1
[unused743] 1
[unused744] 1
[unused745] 1
[unused746] 1
[unused747] 1
[unused748] 1
[unused749] 1
[unused750] 1
[unused751] 1
[unused752] 1
[unused753] 1
[unused754] 1
[unused755] 1
[unused756] 1
[unused757] 1
[unused758] 1
[unused759] 1
[unused760] 1
[unused761] 1
[unused762] 1
[unused763] 1
[unused764] 1
[unused765] 1
[unused766] 1
[unused767] 1
[unused768] 1
[unused769] 1
[unused770] 1
[unused771] 1
[unused772] 1
[unused773] 1
[unused774] 1
[unused775] 1
[unused776] 1
[unused777] 1
[unused778] 1
[unused779] 1
[unused780] 1
[unused781] 1
[unused782] 1
[unused783] 1
[unused784] 1
[unused785] 1
[unused786] 1
[unused787] 1
[unused788] 1
[unused789] 1
[unused790] 1
[unused791] 1
[unused792] 1
[unused793] 1
[unused794] 1
[unused795] 1
[unused796] 1
[unused797] 1
[unused798] 1
[unused799] 1
[unused800] 1
[unused801] 1
[unused802] 1
[unused803] 1
[unused804] 1
[unused805] 1
[unused806] 1
[unused807] 1
[unused808] 1
[unused809] 1
[unused810] 1
[unused811] 1
[unused812] 1
[unused813] 1
[unused814] 1
[unused815] 1
[unused816] 1
[unused817] 1
[unused818] 1
[unused819] 1
[unused820] 1
[unused821] 1
[unused822] 1
[unused823] 1
[unused824] 1
[unused825] 1
[unused826] 1
[unused827] 1
[unused828] 1
[unused829] 1
[unused830] 1
[unused831] 1
[unused832] 1
[unused833] 1
[unused834] 1
[unused835] 1
[unused836] 1
[unused837] 1
[unused838] 1
[unused839] 1
[unused840] 1
[unused841] 1
[unused842] 1
[unused843] 1
[unused844] 1
[unused845] 1
[unused846] 1
[unused847] 1
[unused848] 1
[unused849] 1
[unused850] 1
[unused851] 1
[unused852] 1
[unused853] 1
[unused854] 1
[unused855] 1
[unused856] 1
[unused857] 1
[unused858] 1
[unused859] 1
[unused860] 1
[unused861] 1
[unused862] 1
[unused863] 1
[unused864] 1
[unused865] 1
[unused866] 1
[unused867] 1
[unused868] 1
[unused869] 1
[unused870] 1
[unused871] 1
[unused872] 1
[unused873] 1
[unused874] 1
[unused875] 1
[unused876] 1
[unused877] 1
[unused878] 1
[unused879] 1
[unused880] 1
[unused881] 1
[unused882] 1
[unused883] 1
[unused884] 1
[unused885] 1
[unused886] 1
[unused887] 1
[unused888] 1
[unused889] 1
[unused890] 1
[unused891] 1
[unused892] 1
[unused893] 1
[unused894] 1
[unused895] 1
[unused896] 1
[unused897] 1
[unused898] 1
[unused899] 1
[unused900] 1
[unused901] 1
[unused902] 1
[unused903] 1
[unused904] 1
[unused905] 1
[unused906] 1
[unused907] 1
[unused908] 1
[unused909] 1
[unused910] 1
[unused911] 1
[unused912] 1
[unused913] 1
[unused914] 1
[unused915] 1
[unused916] 1
[unused917] 1
[unused918] 1
[unused919] 1
[unused920] 1
[unused921] 1
[unused922] 1
[unused923] 1
[unused924] 1
[unused925] 1
[unused926] 1
[unused927] 1
[unused928] 1
[unused929] 1
[unused930] 1
[unused931] 1
[unused932] 1
[unused933] 1
[unused934] 1
[unused935] 1
[unused936] 1
[unused937] 1
[unused938] 1
[unused939] 1
[unused940] 1
[unused941] 1
[unused942] 1
[unused943] 1
[unused944] 1
[unused945] 1
[unused946] 1
[unused947] 1
[unused948] 1
[unused949] 1
[unused950] 1
[unused951] 1
[unused952] 1
[unused953] 1
[unused954] 1
[unused955] 1
[unused956] 1
[unused957] 1
[unused958] 1
[unused959] 1
[unused960] 1
[unused961] 1
[unused962] 1
[unused963] 1
[unused964] 1
[unused965] 1
[unused966] 1
[unused967] 1
[unused968] 1
[unused969] 1
[unused970] 1
[unused971] 1
[unused972] 1
[unused973] 1
[unused974] 1
[unused975] 1
[unused976] 1
[unused977] 1
[unused978] 1
[unused979] 1
[unused980] 1
[unused981] 1
[unused982] 1
[unused983] 1
[unused984] 1
[unused985] 1
[unused986] 1
[unused987] 1
[unused988] 1
[unused989] 1
[unused990] 1
[unused991] 1
[unused992] 1
[unused993] 1
! 1
" 1
# 1
$ 1
% 1
& 1
' 1
( 1
) 1
* 1
+ 1
, 1
- 1
. 1
/ 1
0 1
1 1
2 1
3 1
4 1
5 1
6 1
7 1
8 1
9 1
: 1
; 1
< 1
= 1
> 1
? 1
@ 1
[ 1
\ 1
] 1
^ 1
_ 1
` 1
a 1
b 1
c 1
d 1
e 1
f 1
g 1
h 1
i 1
j 1
k 1
l 1
m 1
n 1
o 1
p 1
q 1
r 1
s 1
t 1
u 1
v 1
w 1
x 1
y 1
z 1
{ 1
| 1
} 1
~ 1
¡ 1
¢ 1
£ 1
¤ 1
¥ 1
¦ 1
§ 1
¨ 1
© 1
ª 1
« 1
¬ 1
® 1
° 1
± 1
² 1
³ 1
´ 1
µ 1
¶ 1
· 1
¹ 1
º 1
» 1
¼ 1
½ 1
¾ 1
¿ 1
× 1
ß 1
æ 1
ð 1
÷ 1
ø 1
þ 1
đ 1
ħ 1
ı 1
ł 1
ŋ 1
œ 1
ƒ 1
ɐ 1
ɑ 1
ɒ 1
ɔ 1
ɕ 1
ə 1
ɛ 1
ɡ 1
ɣ 1
ɨ 1
ɪ 1
ɫ 1
ɬ 1
ɯ 1
ɲ 1
ɴ 1
ɹ 1
ɾ 1
ʀ 1
ʁ 1
ʂ 1
ʃ 1
ʉ 1
ʊ 1
ʋ 1
ʌ 1
ʎ 1
ʐ 1
ʑ 1
ʒ 1
ʔ 1
ʰ 1
ʲ 1
ʳ 1
ʷ 1
ʸ 1
ʻ 1
ʼ 1
ʾ 1
ʿ 1
ˈ 1
ː 1
ˡ 1
ˢ 1
ˣ 1
ˤ 1
α 1
β 1
γ 1
δ 1
ε 1
ζ 1
η 1
θ 1
ι 1
κ 1
λ 1
μ 1
ν 1
ξ 1
ο 1
π 1
ρ 1
ς 1
σ 1
τ 1
υ 1
φ 1
χ 1
ψ 1
ω 1
а 1
б 1
в 1
г 1
д 1
е 1
ж 1
з 1
и 1
к 1
л 1
м 1
н 1
о 1
п 1
р 1
с 1
т 1
у 1
ф 1
х 1
ц 1
ч 1
ш 1
щ 1
ъ 1
ы 1
ь 1
э 1
ю 1
я 1
ђ 1
є 1
і 1
ј 1
љ 1
њ 1
ћ 1
ӏ 1
ա 1
բ 1
գ 1
դ 1
ե 1
թ 1
ի 1
լ 1
կ 1
հ 1
մ 1
յ 1
ն 1
ո 1
պ 1
ս 1
վ 1
տ 1
ր 1
ւ 1
ք 1
־ 1
א 1
ב 1
ג 1
ד 1
ה 1
ו 1
ז 1
ח 1
ט 1
י 1
ך 1
כ 1
ל 1
ם 1
מ 1
ן 1
נ 1
ס 1
ע 1
ף 1
פ 1
ץ 1
צ 1
ק 1
ר 1
ש 1
ת 1
، 1
ء 1
ا 1
ب 1
ة 1
ت 1
ث 1
ج 1
ح 1
خ 1
د 1
ذ 1
ر 1
ز 1
س 1
ش 1
ص 1
ض 1
ط 1
ظ 1
ع 1
غ 1
ـ 1
ف 1
ق 1
ك 1
ل 1
م 1
ن 1
ه 1
و 1
ى 1
ي 1
ٹ 1
پ 1
چ 1
ک 1
گ 1
ں 1
ھ 1
ہ 1
ی 1
ے 1
अ 1
आ 1
उ 1
ए 1
क 1
ख 1
ग 1
च 1
ज 1
ट 1
ड 1
ण 1
त 1
थ 1
द 1
ध 1
न 1
प 1
ब 1
भ 1
म 1
य 1
र 1
ल 1
व 1
श 1
ष 1
स 1
ह 1
ा 1
ि 1
ी 1
ो 1
। 1
॥ 1
ং 1
অ 1
আ 1
ই 1
উ 1
এ 1
ও 1
ক 1
খ 1
গ 1
চ 1
ছ 1
জ 1
ট 1
ড 1
ণ 1
ত 1
থ 1
দ 1
ধ 1
ন 1
প 1
ব 1
ভ 1
ম 1
য 1
র 1
ল 1
শ 1
ষ 1
স 1
হ 1
া 1
ি 1
ী 1
ে 1
க 1
ச 1
ட 1
த 1
ந 1
ன 1
ப 1
ம 1
ய 1
ர 1
ல 1
ள 1
வ 1
ா 1
ி 1
ு 1
ே 1
ை 1
ನ 1
ರ 1
ಾ 1
ක 1
ය 1
ර 1
ල 1
ව 1
ා 1
ก 1
ง 1
ต 1
ท 1
น 1
พ 1
ม 1
ย 1
ร 1
ล 1
ว 1
ส 1
อ 1
า 1
เ 1
་ 1
། 1
ག 1
ང 1
ད 1
ན 1
པ 1
བ 1
མ 1
འ 1
ར 1
ལ 1
ས 1
မ 1
ა 1
ბ 1
გ 1
დ 1
ე 1
ვ 1
თ 1
ი 1
კ 1
ლ 1
მ 1
ნ 1
ო 1
რ 1
ს 1
ტ 1
უ 1
ᄀ 1
ᄂ 1
ᄃ 1
ᄅ 1
ᄆ 1
ᄇ 1
ᄉ 1
ᄊ 1
ᄋ 1
ᄌ 1
ᄎ 1
ᄏ 1
ᄐ 1
ᄑ 1
ᄒ 1
ᅡ 1
ᅢ 1
ᅥ 1
ᅦ 1
ᅧ 1
ᅩ 1
ᅪ 1
ᅭ 1
ᅮ 1
ᅯ 1
ᅲ 1
ᅳ 1
ᅴ 1
ᅵ 1
ᆨ 1
ᆫ 1
ᆯ 1
ᆷ 1
ᆸ 1
ᆼ 1
ᴬ 1
ᴮ 1
ᴰ 1
ᴵ 1
ᴺ 1
ᵀ 1
ᵃ 1
ᵇ 1
ᵈ 1
ᵉ 1
ᵍ 1
ᵏ 1
ᵐ 1
ᵒ 1
ᵖ 1
ᵗ 1
ᵘ 1
ᵢ 1
ᵣ 1
ᵤ 1
ᵥ 1
ᶜ 1
ᶠ 1
‐ 1
‑ 1
‒ 1
– 1
— 1
― 1
‖ 1
‘ 1
’ 1
‚ 1
“ 1
” 1
„ 1
† 1
‡ 1
• 1
… 1
‰ 1
′ 1
″ 1
› 1
‿ 1
⁄ 1
⁰ 1
ⁱ 1
⁴ 1
⁵ 1
⁶ 1
⁷ 1
⁸ 1
⁹ 1
⁺ 1
⁻ 1
ⁿ 1
₀ 1
₁ 1
₂ 1
₃ 1
₄ 1
₅ 1
₆ 1
₇ 1
₈ 1
₉ 1
₊ 1
₍ 1
₎ 1
ₐ 1
ₑ 1
ₒ 1
ₓ 1
ₕ 1
ₖ 1
ₗ 1
ₘ 1
ₙ 1
ₚ 1
ₛ 1
ₜ 1
₤ 1
₩ 1
€ 1
₱ 1
₹ 1
ℓ 1
№ 1
ℝ 1
™ 1
⅓ 1
⅔ 1
← 1
↑ 1
→ 1
↓ 1
↔ 1
↦ 1
⇄ 1
⇌ 1
⇒ 1
∂ 1
∅ 1
∆ 1
∇ 1
∈ 1
− 1
∗ 1
∘ 1
√ 1
∞ 1
∧ 1
∨ 1
∩ 1
∪ 1
≈ 1
≡ 1
≤ 1
≥ 1
⊂ 1
⊆ 1
⊕ 1
⊗ 1
⋅ 1
─ 1
│ 1
■ 1
▪ 1
● 1
★ 1
☆ 1
☉ 1
♠ 1
♣ 1
♥ 1
♦ 1
♭ 1
♯ 1
⟨ 1
⟩ 1
ⱼ 1
⺩ 1
⺼ 1
⽥ 1
、 1
。 1
〈 1
〉 1
《 1
》 1
「 1
」 1
『 1
』 1
〜 1
あ 1
い 1
う 1
え 1
お 1
か 1
き 1
く 1
け 1
こ 1
さ 1
し 1
す 1
せ 1
そ 1
た 1
ち 1
っ 1
つ 1
て 1
と 1
な 1
に 1
ぬ 1
ね 1
の 1
は 1
ひ 1
ふ 1
へ 1
ほ 1
ま 1
み 1
む 1
め 1
も 1
や 1
ゆ 1
よ 1
ら 1
り 1
る 1
れ 1
ろ 1
を 1
ん 1
ァ 1
ア 1
ィ 1
イ 1
ウ 1
ェ 1
エ 1
オ 1
カ 1
キ 1
ク 1
ケ 1
コ 1
サ 1
シ 1
ス 1
セ 1
タ 1
チ 1
ッ 1
ツ 1
テ 1
ト 1
ナ 1
ニ 1
ノ 1
ハ 1
ヒ 1
フ 1
ヘ 1
ホ 1
マ 1
ミ 1
ム 1
メ 1
モ 1
ャ 1
ュ 1
ョ 1
ラ 1
リ 1
ル 1
レ 1
ロ 1
ワ 1
ン 1
・ 1
ー 1
一 1
三 1
上 1
下 1
不 1
世 1
中 1
主 1
久 1
之 1
也 1
事 1
二 1
五 1
井 1
京 1
人 1
亻 1
仁 1
介 1
代 1
仮 1
伊 1
会 1
佐 1
侍 1
保 1
信 1
健 1
元 1
光 1
八 1
公 1
内 1
出 1
分 1
前 1
劉 1
力 1
加 1
勝 1
北 1
区 1
十 1
千 1
南 1
博 1
原 1
口 1
古 1
史 1
司 1
合 1
吉 1
同 1
名 1
和 1
囗 1
四 1
国 1
國 1
土 1
地 1
坂 1
城 1
堂 1
場 1
士 1
夏 1
外 1
大 1
天 1
太 1
夫 1
奈 1
女 1
子 1
学 1
宀 1
宇 1
安 1
宗 1
定 1
宣 1
宮 1
家 1
宿 1
寺 1
將 1
小 1
尚 1
山 1
岡 1
島 1
崎 1
川 1
州 1
巿 1
帝 1
平 1
年 1
幸 1
广 1
弘 1
張 1
彳 1
後 1
御 1
德 1
心 1
忄 1
志 1
忠 1
愛 1
成 1
我 1
戦 1
戸 1
手 1
扌 1
政 1
文 1
新 1
方 1
日 1
明 1
星 1
春 1
昭 1
智 1
曲 1
書 1
月 1
有 1
朝 1
木 1
本 1
李 1
村 1
東 1
松 1
林 1
森 1
楊 1
樹 1
橋 1
歌 1
止 1
正 1
武 1
比 1
氏 1
民 1
水 1
氵 1
氷 1
永 1
江 1
沢 1
河 1
治 1
法 1
海 1
清 1
漢 1
瀬 1
火 1
版 1
犬 1
王 1
生 1
田 1
男 1
疒 1
発 1
白 1
的 1
皇 1
目 1
相 1
省 1
真 1
石 1
示 1
社 1
神 1
福 1
禾 1
秀 1
秋 1
空 1
立 1
章 1
竹 1
糹 1
美 1
義 1
耳 1
良 1
艹 1
花 1
英 1
華 1
葉 1
藤 1
行 1
街 1
西 1
見 1
訁 1
語 1
谷 1
貝 1
貴 1
車 1
軍 1
辶 1
道 1
郎 1
郡 1
部 1
都 1
里 1
野 1
金 1
鈴 1
镇 1
長 1
門 1
間 1
阝 1
阿 1
陳 1
陽 1
雄 1
青 1
面 1
風 1
食 1
香 1
馬 1
高 1
龍 1
龸 1
ﬁ 1
ﬂ 1
！ 1
（ 1
） 1
， 1
－ 1
． 1
／ 1
： 1
？ 1
～ 1
the 1
of 1
and 1
in 1
to 1
was 1
he 1
is 1
as 1
for 1
on 1
with 1
that 1
it 1
his 1
by 1
at 1
from 1
her 1
##s 1
she 1
you 1
had 1
an 1
were 1
but 1
be 1
this 1
are 1
not 1
my 1
they 1
one 1
which 1
or 1
have 1
him 1
me 1
first 1
all 1
also 1
their 1
has 1
up 1
who 1
out 1
been 1
when 1
after 1
there 1
into 1
new 1
two 1
its 1
##a 1
time 1
would 1
no 1
what 1
about 1
said 1
we 1
over 1
then 1
other 1
so 1
more 1
##e 1
can 1
if 1
like 1
back 1
them 1
only 1
some 1
could 1
##i 1
where 1
just 1
##ing 1
during 1
before 1
##n 1
do 1
##o 1
made 1
school 1
through 1
than 1
now 1
years 1
most 1
world 1
may 1
between 1
down 1
well 1
three 1
##d 1
year 1
while 1
will 1
##ed 1
##r 1
##y 1
later 1
##t 1
city 1
under 1
around 1
did 1
such 1
being 1
used 1
state 1
people 1
part 1
know 1
against 1
your 1
many 1
second 1
university 1
both 1
national 1
##er 1
these 1
don 1
known 1
off 1
way 1
until 1
re 1
how 1
even 1
get 1
head 1
... 1
didn 1
##ly 1
team 1
american 1
because 1
de 1
##l 1
born 1
united 1
film 1
since 1
still 1
long 1
work 1
south 1
us 1
became 1
any 1
high 1
again 1
day 1
family 1
see 1
right 1
man 1
eyes 1
house 1
season 1
war 1
states 1
including 1
took 1
life 1
north 1
same 1
each 1
called 1
name 1
much 1
place 1
however 1
go 1
four 1
group 1
another 1
found 1
won 1
area 1
here 1
going 1
10 1
away 1
series 1
left 1
home 1
music 1
best 1
make 1
hand 1
number 1
company 1
several 1
never 1
last 1
john 1
000 1
very 1
album 1
take 1
end 1
good 1
too 1
following 1
released 1
game 1
played 1
little 1
began 1
district 1
##m 1
old 1
want 1
those 1
side 1
held 1
own 1
early 1
county 1
ll 1
league 1
use 1
west 1
##u 1
face 1
think 1
##es 1
2010 1
government 1
##h 1
march 1
came 1
small 1
general 1
town 1
june 1
##on 1
line 1
based 1
something 1
##k 1
september 1
thought 1
looked 1
along 1
international 1
2011 1
air 1
july 1
club 1
went 1
january 1
october 1
our 1
august 1
april 1
york 1
12 1
few 1
2012 1
2008 1
east 1
show 1
member 1
college 1
2009 1
father 1
public 1
##us 1
come 1
men 1
five 1
set 1
station 1
church 1
##c 1
next 1
former 1
november 1
room 1
party 1
located 1
december 1
2013 1
age 1
got 1
2007 1
##g 1
system 1
let 1
love 1
2006 1
though 1
every 1
2014 1
look 1
song 1
water 1
century 1
without 1
body 1
black 1
night 1
within 1
great 1
women 1
single 1
ve 1
building 1
large 1
population 1
river 1
named 1
band 1
white 1
started 1
##an 1
once 1
15 1
20 1
should 1
18 1
2015 1
service 1
top 1
built 1
british 1
open 1
death 1
king 1
moved 1
local 1
times 1
children 1
february 1
book 1
why 1
11 1
door 1
need 1
president 1
order 1
final 1
road 1
wasn 1
although 1
due 1
major 1
died 1
village 1
third 1
knew 1
2016 1
asked 1
turned 1
st 1
wanted 1
say 1
##p 1
together 1
received 1
main 1
son 1
served 1
different 1
##en 1
behind 1
himself 1
felt 1
members 1
power 1
football 1
law 1
voice 1
play 1
##in 1
near 1
park 1
history 1
30 1
having 1
2005 1
16 1
##man 1
saw 1
mother 1
##al 1
army 1
point 1
front 1
help 1
english 1
street 1
art 1
late 1
hands 1
games 1
award 1
##ia 1
young 1
14 1
put 1
published 1
country 1
division 1
across 1
told 1
13 1
often 1
ever 1
french 1
london 1
center 1
six 1
red 1
2017 1
led 1
days 1
include 1
light 1
25 1
find 1
tell 1
among 1
species 1
really 1
according 1
central 1
half 1
2004 1
form 1
original 1
gave 1
office 1
making 1
enough 1
lost 1
full 1
opened 1
must 1
included 1
live 1
given 1
german 1
player 1
run 1
business 1
woman 1
community 1
cup 1
might 1
million 1
land 1
2000 1
court 1
development 1
17 1
short 1
round 1
ii 1
km 1
seen 1
class 1
story 1
always 1
become 1
sure 1
research 1
almost 1
director 1
council 1
la 1
##2 1
career 1
things 1
using 1
island 1
##z 1
couldn 1
car 1
##is 1
24 1
close 1
force 1
##1 1
better 1
free 1
support 1
control 1
field 1
students 1
2003 1
education 1
married 1
##b 1
nothing 1
worked 1
others 1
record 1
big 1
inside 1
level 1
anything 1
continued 1
give 1
james 1
##3 1
military 1
established 1
non 1
returned 1
feel 1
does 1
title 1
written 1
thing 1
feet 1
william 1
far 1
co 1
association 1
hard 1
already 1
2002 1
##ra 1
championship 1
human 1
western 1
100 1
##na 1
department 1
hall 1
role 1
various 1
production 1
21 1
19 1
heart 1
2001 1
living 1
fire 1
version 1
##ers 1
##f 1
television 1
royal 1
##4 1
produced 1
working 1
act 1
case 1
society 1
region 1
present 1
radio 1
period 1
looking 1
least 1
total 1
keep 1
england 1
wife 1
program 1
per 1
brother 1
mind 1
special 1
22 1
##le 1
am 1
works 1
soon 1
##6 1
political 1
george 1
services 1
taken 1
created 1
##7 1
further 1
able 1
reached 1
david 1
union 1
joined 1
upon 1
done 1
important 1
social 1
information 1
either 1
##ic 1
##x 1
appeared 1
position 1
ground 1
lead 1
rock 1
dark 1
election 1
23 1
board 1
france 1
hair 1
course 1
arms 1
site 1
police 1
girl 1
instead 1
real 1
sound 1
##v 1
words 1
moment 1
##te 1
someone 1
##8 1
summer 1
project 1
announced 1
san 1
less 1
wrote 1
past 1
followed 1
##5 1
blue 1
founded 1
al 1
finally 1
india 1
taking 1
records 1
america 1
##ne 1
1999 1
design 1
considered 1
northern 1
god 1
stop 1
battle 1
toward 1
european 1
outside 1
described 1
track 1
today 1
playing 1
language 1
28 1
call 1
26 1
heard 1
professional 1
low 1
australia 1
miles 1
california 1
win 1
yet 1
green 1
##ie 1
trying 1
blood 1
##ton 1
southern 1
science 1
maybe 1
everything 1
match 1
square 1
27 1
mouth 1
video 1
race 1
recorded 1
leave 1
above 1
##9 1
daughter 1
points 1
space 1
1998 1
museum 1
change 1
middle 1
common 1
##0 1
move 1
tv 1
post 1
##ta 1
lake 1
seven 1
tried 1
elected 1
closed 1
ten 1
paul 1
minister 1
##th 1
months 1
start 1
chief 1
return 1
canada 1
person 1
sea 1
release 1
similar 1
modern 1
brought 1
rest 1
hit 1
formed 1
mr 1
##la 1
1997 1
floor 1
event 1
doing 1
thomas 1
1996 1
robert 1
care 1
killed 1
training 1
star 1
week 1
needed 1
turn 1
finished 1
railway 1
rather 1
news 1
health 1
sent 1
example 1
ran 1
term 1
michael 1
coming 1
currently 1
yes 1
forces 1
despite 1
gold 1
areas 1
50 1
stage 1
fact 1
29 1
dead 1
says 1
popular 1
2018 1
originally 1
germany 1
probably 1
developed 1
result 1
pulled 1
friend 1
stood 1
money 1
running 1
mi 1
signed 1
word 1
songs 1
child 1
eventually 1
met 1
tour 1
average 1
teams 1
minutes 1
festival 1
current 1
deep 1
kind 1
1995 1
decided 1
usually 1
eastern 1
seemed 1
##ness 1
episode 1
bed 1
added 1
table 1
indian 1
private 1
charles 1
route 1
available 1
idea 1
throughout 1
centre 1
addition 1
appointed 1
style 1
1994 1
books 1
eight 1
construction 1
press 1
mean 1
wall 1
friends 1
remained 1
schools 1
study 1
##ch 1
##um 1
institute 1
oh 1
chinese 1
sometimes 1
events 1
possible 1
1992 1
australian 1
type 1
brown 1
forward 1
talk 1
process 1
food 1
debut 1
seat 1
performance 1
committee 1
features 1
character 1
arts 1
herself 1
else 1
lot 1
strong 1
russian 1
range 1
hours 1
peter 1
arm 1
##da 1
morning 1
dr 1
sold 1
##ry 1
quickly 1
directed 1
1993 1
guitar 1
china 1
##w 1
31 1
list 1
##ma 1
performed 1
media 1
uk 1
players 1
smile 1
##rs 1
myself 1
40 1
placed 1
coach 1
province 1
towards 1
wouldn 1
leading 1
whole 1
boy 1
official 1
designed 1
grand 1
census 1
##el 1
europe 1
attack 1
japanese 1
henry 1
1991 1
##re 1
##os 1
cross 1
getting 1
alone 1
action 1
lower 1
network 1
wide 1
washington 1
japan 1
1990 1
hospital 1
believe 1
changed 1
sister 1
##ar 1
hold 1
gone 1
sir 1
hadn 1
ship 1
##ka 1
studies 1
academy 1
shot 1
rights 1
below 1
base 1
bad 1
involved 1
kept 1
largest 1
##ist 1
bank 1
future 1
especially 1
beginning 1
mark 1
movement 1
section 1
female 1
magazine 1
plan 1
professor 1
lord 1
longer 1
##ian 1
sat 1
walked 1
hill 1
actually 1
civil 1
energy 1
model 1
families 1
size 1
thus 1
aircraft 1
completed 1
includes 1
data 1
captain 1
##or 1
fight 1
vocals 1
featured 1
richard 1
bridge 1
fourth 1
1989 1
officer 1
stone 1
hear 1
##ism 1
means 1
medical 1
groups 1
management 1
self 1
lips 1
competition 1
entire 1
lived 1
technology 1
leaving 1
federal 1
tournament 1
bit 1
passed 1
hot 1
independent 1
awards 1
kingdom 1
mary 1
spent 1
fine 1
doesn 1
reported 1
##ling 1
jack 1
fall 1
raised 1
itself 1
stay 1
true 1
studio 1
1988 1
sports 1
replaced 1
paris 1
systems 1
saint 1
leader 1
theatre 1
whose 1
market 1
capital 1
parents 1
spanish 1
canadian 1
earth 1
##ity 1
cut 1
degree 1
writing 1
bay 1
christian 1
awarded 1
natural 1
higher 1
bill 1
##as 1
coast 1
provided 1
previous 1
senior 1
ft 1
valley 1
organization 1
stopped 1
onto 1
countries 1
parts 1
conference 1
queen 1
security 1
interest 1
saying 1
allowed 1
master 1
earlier 1
phone 1
matter 1
smith 1
winning 1
try 1
happened 1
moving 1
campaign 1
los 1
##ley 1
breath 1
nearly 1
mid 1
1987 1
certain 1
girls 1
date 1
italian 1
african 1
standing 1
fell 1
artist 1
##ted 1
shows 1
deal 1
mine 1
industry 1
1986 1
##ng 1
everyone 1
republic 1
provide 1
collection 1
library 1
student 1
##ville 1
primary 1
owned 1
older 1
via 1
heavy 1
1st 1
makes 1
##able 1
attention 1
anyone 1
africa 1
##ri 1
stated 1
length 1
ended 1
fingers 1
command 1
staff 1
skin 1
foreign 1
opening 1
governor 1
okay 1
medal 1
kill 1
sun 1
cover 1
job 1
1985 1
introduced 1
chest 1
hell 1
feeling 1
##ies 1
success 1
meet 1
reason 1
standard 1
meeting 1
novel 1
1984 1
trade 1
source 1
buildings 1
##land 1
rose 1
guy 1
goal 1
##ur 1
chapter 1
native 1
husband 1
previously 1
unit 1
limited 1
entered 1
weeks 1
producer 1
operations 1
mountain 1
takes 1
covered 1
forced 1
related 1
roman 1
complete 1
successful 1
key 1
texas 1
cold 1
##ya 1
channel 1
1980 1
traditional 1
films 1
dance 1
clear 1
approximately 1
500 1
nine 1
van 1
prince 1
question 1
active 1
tracks 1
ireland 1
regional 1
silver 1
author 1
personal 1
sense 1
operation 1
##ine 1
economic 1
1983 1
holding 1
twenty 1
isbn 1
additional 1
speed 1
hour 1
edition 1
regular 1
historic 1
places 1
whom 1
shook 1
movie 1
km² 1
secretary 1
prior 1
report 1
chicago 1
read 1
foundation 1
view 1
engine 1
scored 1
1982 1
units 1
ask 1
airport 1
property 1
ready 1
immediately 1
lady 1
month 1
listed 1
contract 1
##de 1
manager 1
themselves 1
lines 1
##ki 1
navy 1
writer 1
meant 1
##ts 1
runs 1
##ro 1
practice 1
championships 1
singer 1
glass 1
commission 1
required 1
forest 1
starting 1
culture 1
generally 1
giving 1
access 1
attended 1
test 1
couple 1
stand 1
catholic 1
martin 1
caught 1
executive 1
##less 1
eye 1
##ey 1
thinking 1
chair 1
quite 1
shoulder 1
1979 1
hope 1
decision 1
plays 1
defeated 1
municipality 1
whether 1
structure 1
offered 1
slowly 1
pain 1
ice 1
direction 1
##ion 1
paper 1
mission 1
1981 1
mostly 1
200 1
noted 1
individual 1
managed 1
nature 1
lives 1
plant 1
##ha 1
helped 1
except 1
studied 1
computer 1
figure 1
relationship 1
issue 1
significant 1
loss 1
die 1
smiled 1
gun 1
ago 1
highest 1
1972 1
##am 1
male 1
bring 1
goals 1
mexico 1
problem 1
distance 1
commercial 1
completely 1
location 1
annual 1
famous 1
drive 1
1976 1
neck 1
1978 1
surface 1
caused 1
italy 1
understand 1
greek 1
highway 1
wrong 1
hotel 1
comes 1
appearance 1
joseph 1
double 1
issues 1
musical 1
companies 1
castle 1
income 1
review 1
assembly 1
bass 1
initially 1
parliament 1
artists 1
experience 1
1974 1
particular 1
walk 1
foot 1
engineering 1
talking 1
window 1
dropped 1
##ter 1
miss 1
baby 1
boys 1
break 1
1975 1
stars 1
edge 1
remember 1
policy 1
carried 1
train 1
stadium 1
bar 1
sex 1
angeles 1
evidence 1
##ge 1
becoming 1
assistant 1
soviet 1
1977 1
upper 1
step 1
wing 1
1970 1
youth 1
financial 1
reach 1
##ll 1
actor 1
numerous 1
##se 1
##st 1
nodded 1
arrived 1
##ation 1
minute 1
##nt 1
believed 1
sorry 1
complex 1
beautiful 1
victory 1
associated 1
temple 1
1968 1
1973 1
chance 1
perhaps 1
metal 1
##son 1
1945 1
bishop 1
##et 1
lee 1
launched 1
particularly 1
tree 1
le 1
retired 1
subject 1
prize 1
contains 1
yeah 1
theory 1
empire 1
##ce 1
suddenly 1
waiting 1
trust 1
recording 1
##to 1
happy 1
terms 1
camp 1
champion 1
1971 1
religious 1
pass 1
zealand 1
names 1
2nd 1
port 1
ancient 1
tom 1
corner 1
represented 1
watch 1
legal 1
anti 1
justice 1
cause 1
watched 1
brothers 1
45 1
material 1
changes 1
simply 1
response 1
louis 1
fast 1
##ting 1
answer 1
60 1
historical 1
1969 1
stories 1
straight 1
create 1
feature 1
increased 1
rate 1
administration 1
virginia 1
el 1
activities 1
cultural 1
overall 1
winner 1
programs 1
basketball 1
legs 1
guard 1
beyond 1
cast 1
doctor 1
mm 1
flight 1
results 1
remains 1
cost 1
effect 1
winter 1
##ble 1
larger 1
islands 1
problems 1
chairman 1
grew 1
commander 1
isn 1
1967 1
pay 1
failed 1
selected 1
hurt 1
fort 1
box 1
regiment 1
majority 1
journal 1
35 1
edward 1
plans 1
##ke 1
##ni 1
shown 1
pretty 1
irish 1
characters 1
directly 1
scene 1
likely 1
operated 1
allow 1
spring 1
##j 1
junior 1
matches 1
looks 1
mike 1
houses 1
fellow 1
##tion 1
beach 1
marriage 1
##ham 1
##ive 1
rules 1
oil 1
65 1
florida 1
expected 1
nearby 1
congress 1
sam 1
peace 1
recent 1
iii 1
wait 1
subsequently 1
cell 1
##do 1
variety 1
serving 1
agreed 1
please 1
poor 1
joe 1
pacific 1
attempt 1
wood 1
democratic 1
piece 1
prime 1
##ca 1
rural 1
mile 1
touch 1
appears 1
township 1
1964 1
1966 1
soldiers 1
##men 1
##ized 1
1965 1
pennsylvania 1
closer 1
fighting 1
claimed 1
score 1
jones 1
physical 1
editor 1
##ous 1
filled 1
genus 1
specific 1
sitting 1
super 1
mom 1
##va 1
therefore 1
supported 1
status 1
fear 1
cases 1
store 1
meaning 1
wales 1
minor 1
spain 1
tower 1
focus 1
vice 1
frank 1
follow 1
parish 1
separate 1
golden 1
horse 1
fifth 1
remaining 1
branch 1
32 1
presented 1
stared 1
##id 1
uses 1
secret 1
forms 1
##co 1
baseball 1
exactly 1
##ck 1
choice 1
note 1
discovered 1
travel 1
composed 1
truth 1
russia 1
ball 1
color 1
kiss 1
dad 1
wind 1
continue 1
ring 1
referred 1
numbers 1
digital 1
greater 1
##ns 1
metres 1
slightly 1
direct 1
increase 1
1960 1
responsible 1
crew 1
rule 1
trees 1
troops 1
##no 1
broke 1
goes 1
individuals 1
hundred 1
weight 1
creek 1
sleep 1
memory 1
defense 1
provides 1
ordered 1
code 1
value 1
jewish 1
windows 1
1944 1
safe 1
judge 1
whatever 1
corps 1
realized 1
growing 1
pre 1
##ga 1
cities 1
alexander 1
gaze 1
lies 1
spread 1
scott 1
letter 1
showed 1
situation 1
mayor 1
transport 1
watching 1
workers 1
extended 1
##li 1
expression 1
normal 1
##ment 1
chart 1
multiple 1
border 1
##ba 1
host 1
##ner 1
daily 1
mrs 1
walls 1
piano 1
##ko 1
heat 1
cannot 1
##ate 1
earned 1
products 1
drama 1
era 1
authority 1
seasons 1
join 1
grade 1
##io 1
sign 1
difficult 1
machine 1
1963 1
territory 1
mainly 1
##wood 1
stations 1
squadron 1
1962 1
stepped 1
iron 1
19th 1
##led 1
serve 1
appear 1
sky 1
speak 1
broken 1
charge 1
knowledge 1
kilometres 1
removed 1
ships 1
article 1
campus 1
simple 1
##ty 1
pushed 1
britain 1
##ve 1
leaves 1
recently 1
cd 1
soft 1
boston 1
latter 1
easy 1
acquired 1
poland 1
##sa 1
quality 1
officers 1
presence 1
planned 1
nations 1
mass 1
broadcast 1
jean 1
share 1
image 1
influence 1
wild 1
offer 1
emperor 1
electric 1
reading 1
headed 1
ability 1
promoted 1
yellow 1
ministry 1
1942 1
throat 1
smaller 1
politician 1
##by 1
latin 1
spoke 1
cars 1
williams 1
males 1
lack 1
pop 1
80 1
##ier 1
acting 1
seeing 1
consists 1
##ti 1
estate 1
1961 1
pressure 1
johnson 1
newspaper 1
jr 1
chris 1
olympics 1
online 1
conditions 1
beat 1
elements 1
walking 1
vote 1
##field 1
needs 1
carolina 1
text 1
featuring 1
global 1
block 1
shirt 1
levels 1
francisco 1
purpose 1
females 1
et 1
dutch 1
duke 1
ahead 1
gas 1
twice 1
safety 1
serious 1
turning 1
highly 1
lieutenant 1
firm 1
maria 1
amount 1
mixed 1
daniel 1
proposed 1
perfect 1
agreement 1
affairs 1
3rd 1
seconds 1
contemporary 1
paid 1
1943 1
prison 1
save 1
kitchen 1
label 1
administrative 1
intended 1
constructed 1
academic 1
nice 1
teacher 1
races 1
1956 1
formerly 1
corporation 1
ben 1
nation 1
issued 1
shut 1
1958 1
drums 1
housing 1
victoria 1
seems 1
opera 1
1959 1
graduated 1
function 1
von 1
mentioned 1
picked 1
build 1
recognized 1
shortly 1
protection 1
picture 1
notable 1
exchange 1
elections 1
1980s 1
loved 1
percent 1
racing 1
fish 1
elizabeth 1
garden 1
volume 1
hockey 1
1941 1
beside 1
settled 1
##ford 1
1940 1
competed 1
replied 1
drew 1
1948 1
actress 1
marine 1
scotland 1
steel 1
glanced 1
farm 1
steve 1
1957 1
risk 1
tonight 1
positive 1
magic 1
singles 1
effects 1
gray 1
screen 1
dog 1
##ja 1
residents 1
bus 1
sides 1
none 1
secondary 1
literature 1
polish 1
destroyed 1
flying 1
founder 1
households 1
1939 1
lay 1
reserve 1
usa 1
gallery 1
##ler 1
1946 1
industrial 1
younger 1
approach 1
appearances 1
urban 1
ones 1
1950 1
finish 1
avenue 1
powerful 1
fully 1
growth 1
page 1
honor 1
jersey 1
projects 1
advanced 1
revealed 1
basic 1
90 1
infantry 1
pair 1
equipment 1
visit 1
33 1
evening 1
search 1
grant 1
effort 1
solo 1
treatment 1
buried 1
republican 1
primarily 1
bottom 1
owner 1
1970s 1
israel 1
gives 1
jim 1
dream 1
bob 1
remain 1
spot 1
70 1
notes 1
produce 1
champions 1
contact 1
ed 1
soul 1
accepted 1
ways 1
del 1
##ally 1
losing 1
split 1
price 1
capacity 1
basis 1
trial 1
questions 1
##ina 1
1955 1
20th 1
guess 1
officially 1
memorial 1
naval 1
initial 1
##ization 1
whispered 1
median 1
engineer 1
##ful 1
sydney 1
##go 1
columbia 1
strength 1
300 1
1952 1
tears 1
senate 1
00 1
card 1
asian 1
agent 1
1947 1
software 1
44 1
draw 1
warm 1
supposed 1
com 1
pro 1
##il 1
transferred 1
leaned 1
##at 1
candidate 1
escape 1
mountains 1
asia 1
potential 1
activity 1
entertainment 1
seem 1
traffic 1
jackson 1
murder 1
36 1
slow 1
product 1
orchestra 1
haven 1
agency 1
bbc 1
taught 1
website 1
comedy 1
unable 1
storm 1
planning 1
albums 1
rugby 1
environment 1
scientific 1
grabbed 1
protect 1
##hi 1
boat 1
typically 1
1954 1
1953 1
damage 1
principal 1
divided 1
dedicated 1
mount 1
ohio 1
##berg 1
pick 1
fought 1
driver 1
##der 1
empty 1
shoulders 1
sort 1
thank 1
berlin 1
prominent 1
account 1
freedom 1
necessary 1
efforts 1
alex 1
headquarters 1
follows 1
alongside 1
des 1
simon 1
andrew 1
suggested 1
operating 1
learning 1
steps 1
1949 1
sweet 1
technical 1
begin 1
easily 1
34 1
teeth 1
speaking 1
settlement 1
scale 1
##sh 1
renamed 1
ray 1
max 1
enemy 1
semi 1
joint 1
compared 1
##rd 1
scottish 1
leadership 1
analysis 1
offers 1
georgia 1
pieces 1
captured 1
animal 1
deputy 1
guest 1
organized 1
##lin 1
tony 1
combined 1
method 1
challenge 1
1960s 1
huge 1
wants 1
battalion 1
sons 1
rise 1
crime 1
types 1
facilities 1
telling 1
path 1
1951 1
platform 1
sit 1
1990s 1
##lo 1
tells 1
assigned 1
rich 1
pull 1
##ot 1
commonly 1
alive 1
##za 1
letters 1
concept 1
conducted 1
wearing 1
happen 1
bought 1
becomes 1
holy 1
gets 1
ocean 1
defeat 1
languages 1
purchased 1
coffee 1
occurred 1
titled 1
##q 1
declared 1
applied 1
sciences 1
concert 1
sounds 1
jazz 1
brain 1
##me 1
painting 1
fleet 1
tax 1
nick 1
##ius 1
michigan 1
count 1
animals 1
leaders 1
episodes 1
##line 1
content 1
##den 1
birth 1
##it 1
clubs 1
64 1
palace 1
critical 1
refused 1
fair 1
leg 1
laughed 1
returning 1
surrounding 1
participated 1
formation 1
lifted 1
pointed 1
connected 1
rome 1
medicine 1
laid 1
taylor 1
santa 1
powers 1
adam 1
tall 1
shared 1
focused 1
knowing 1
yards 1
entrance 1
falls 1
##wa 1
calling 1
##ad 1
sources 1
chosen 1
beneath 1
resources 1
yard 1
##ite 1
nominated 1
silence 1
zone 1
defined 1
##que 1
gained 1
thirty 1
38 1
bodies 1
moon 1
##ard 1
adopted 1
christmas 1
widely 1
register 1
apart 1
iran 1
premier 1
serves 1
du 1
unknown 1
parties 1
##les 1
generation 1
##ff 1
continues 1
quick 1
fields 1
brigade 1
quiet 1
teaching 1
clothes 1
impact 1
weapons 1
partner 1
flat 1
theater 1
supreme 1
1938 1
37 1
relations 1
##tor 1
plants 1
suffered 1
1936 1
wilson 1
kids 1
begins 1
##age 1
1918 1
seats 1
armed 1
internet 1
models 1
worth 1
laws 1
400 1
communities 1
classes 1
background 1
knows 1
thanks 1
quarter 1
reaching 1
humans 1
carry 1
killing 1
format 1
kong 1
hong 1
setting 1
75 1
architecture 1
disease 1
railroad 1
inc 1
possibly 1
wish 1
arthur 1
thoughts 1
harry 1
doors 1
density 1
##di 1
crowd 1
illinois 1
stomach 1
tone 1
unique 1
reports 1
anyway 1
##ir 1
liberal 1
der 1
vehicle 1
thick 1
dry 1
drug 1
faced 1
largely 1
facility 1
theme 1
holds 1
creation 1
strange 1
colonel 1
##mi 1
revolution 1
bell 1
politics 1
turns 1
silent 1
rail 1
relief 1
independence 1
combat 1
shape 1
write 1
determined 1
sales 1
learned 1
4th 1
finger 1
oxford 1
providing 1
1937 1
heritage 1
fiction 1
situated 1
designated 1
allowing 1
distribution 1
hosted 1
##est 1
sight 1
interview 1
estimated 1
reduced 1
##ria 1
toronto 1
footballer 1
keeping 1
guys 1
damn 1
claim 1
motion 1
sport 1
sixth 1
stayed 1
##ze 1
en 1
rear 1
receive 1
handed 1
twelve 1
dress 1
audience 1
granted 1
brazil 1
##well 1
spirit 1
##ated 1
noticed 1
etc 1
olympic 1
representative 1
eric 1
tight 1
trouble 1
reviews 1
drink 1
vampire 1
missing 1
roles 1
ranked 1
newly 1
household 1
finals 1
wave 1
critics 1
##ee 1
phase 1
massachusetts 1
pilot 1
unlike 1
philadelphia 1
bright 1
guns 1
crown 1
organizations 1
roof 1
42 1
respectively 1
clearly 1
tongue 1
marked 1
circle 1
fox 1
korea 1
bronze 1
brian 1
expanded 1
sexual 1
supply 1
yourself 1
inspired 1
labour 1
fc 1
##ah 1
reference 1
vision 1
draft 1
connection 1
brand 1
reasons 1
1935 1
classic 1
driving 1
trip 1
jesus 1
cells 1
entry 1
1920 1
neither 1
trail 1
claims 1
atlantic 1
orders 1
labor 1
nose 1
afraid 1
identified 1
intelligence 1
calls 1
cancer 1
attacked 1
passing 1
stephen 1
positions 1
imperial 1
grey 1
jason 1
39 1
sunday 1
48 1
swedish 1
avoid 1
extra 1
uncle 1
message 1
covers 1
allows 1
surprise 1
materials 1
fame 1
hunter 1
##ji 1
1930 1
citizens 1
figures 1
davis 1
environmental 1
confirmed 1
shit 1
titles 1
di 1
performing 1
difference 1
acts 1
attacks 1
##ov 1
existing 1
votes 1
opportunity 1
nor 1
shop 1
entirely 1
trains 1
opposite 1
pakistan 1
##pa 1
develop 1
resulted 1
representatives 1
actions 1
reality 1
pressed 1
##ish 1
barely 1
wine 1
conversation 1
faculty 1
northwest 1
ends 1
documentary 1
nuclear 1
stock 1
grace 1
sets 1
eat 1
alternative 1
##ps 1
bag 1
resulting 1
creating 1
surprised 1
cemetery 1
1919 1
drop 1
finding 1
sarah 1
cricket 1
streets 1
tradition 1
ride 1
1933 1
exhibition 1
target 1
ear 1
explained 1
rain 1
composer 1
injury 1
apartment 1
municipal 1
educational 1
occupied 1
netherlands 1
clean 1
billion 1
constitution 1
learn 1
1914 1
maximum 1
classical 1
francis 1
lose 1
opposition 1
jose 1
ontario 1
bear 1
core 1
hills 1
rolled 1
ending 1
drawn 1
permanent 1
fun 1
##tes 1
##lla 1
lewis 1
sites 1
chamber 1
ryan 1
##way 1
scoring 1
height 1
1934 1
##house 1
lyrics 1
staring 1
55 1
officials 1
1917 1
snow 1
oldest 1
##tic 1
orange 1
##ger 1
qualified 1
interior 1
apparently 1
succeeded 1
thousand 1
dinner 1
lights 1
existence 1
fans 1
heavily 1
41 1
greatest 1
conservative 1
send 1
bowl 1
plus 1
enter 1
catch 1
##un 1
economy 1
duty 1
1929 1
speech 1
authorities 1
princess 1
performances 1
versions 1
shall 1
graduate 1
pictures 1
effective 1
remembered 1
poetry 1
desk 1
crossed 1
starring 1
starts 1
passenger 1
sharp 1
##ant 1
acres 1
ass 1
weather 1
falling 1
rank 1
fund 1
supporting 1
check 1
adult 1
publishing 1
heads 1
cm 1
southeast 1
lane 1
##burg 1
application 1
bc 1
##ura 1
les 1
condition 1
transfer 1
prevent 1
display 1
ex 1
regions 1
earl 1
federation 1
cool 1
relatively 1
answered 1
besides 1
1928 1
obtained 1
portion 1
##town 1
mix 1
##ding 1
reaction 1
liked 1
dean 1
express 1
peak 1
1932 1
##tte 1
counter 1
religion 1
chain 1
rare 1
miller 1
convention 1
aid 1
lie 1
vehicles 1
mobile 1
perform 1
squad 1
wonder 1
lying 1
crazy 1
sword 1
##ping 1
attempted 1
centuries 1
weren 1
philosophy 1
category 1
##ize 1
anna 1
interested 1
47 1
sweden 1
wolf 1
frequently 1
abandoned 1
kg 1
literary 1
alliance 1
task 1
entitled 1
##ay 1
threw 1
promotion 1
factory 1
tiny 1
soccer 1
visited 1
matt 1
fm 1
achieved 1
52 1
defence 1
internal 1
persian 1
43 1
methods 1
##ging 1
arrested 1
otherwise 1
cambridge 1
programming 1
villages 1
elementary 1
districts 1
rooms 1
criminal 1
conflict 1
worry 1
trained 1
1931 1
attempts 1
waited 1
signal 1
bird 1
truck 1
subsequent 1
programme 1
##ol 1
ad 1
49 1
communist 1
details 1
faith 1
sector 1
patrick 1
carrying 1
laugh 1
##ss 1
controlled 1
korean 1
showing 1
origin 1
fuel 1
evil 1
1927 1
##ent 1
brief 1
identity 1
darkness 1
address 1
pool 1
missed 1
publication 1
web 1
planet 1
ian 1
anne 1
wings 1
invited 1
##tt 1
briefly 1
standards 1
kissed 1
##be 1
ideas 1
climate 1
causing 1
walter 1
worse 1
albert 1
articles 1
winners 1
desire 1
aged 1
northeast 1
dangerous 1
gate 1
doubt 1
1922 1
wooden 1
multi 1
##ky 1
poet 1
rising 1
funding 1
46 1
communications 1
communication 1
violence 1
copies 1
prepared 1
ford 1
investigation 1
skills 1
1924 1
pulling 1
electronic 1
##ak 1
##ial 1
##han 1
containing 1
ultimately 1
offices 1
singing 1
understanding 1
restaurant 1
tomorrow 1
fashion 1
christ 1
ward 1
da 1
pope 1
stands 1
5th 1
flow 1
studios 1
aired 1
commissioned 1
contained 1
exist 1
fresh 1
americans 1
##per 1
wrestling 1
approved 1
kid 1
employed 1
respect 1
suit 1
1925 1
angel 1
asking 1
increasing 1
frame 1
angry 1
selling 1
1950s 1
thin 1
finds 1
##nd 1
temperature 1
statement 1
ali 1
explain 1
inhabitants 1
towns 1
extensive 1
narrow 1
51 1
jane 1
flowers 1
images 1
promise 1
somewhere 1
object 1
fly 1
closely 1
##ls 1
1912 1
bureau 1
cape 1
1926 1
weekly 1
presidential 1
legislative 1
1921 1
##ai 1
##au 1
launch 1
founding 1
##ny 1
978 1
##ring 1
artillery 1
strike 1
un 1
institutions 1
roll 1
writers 1
landing 1
chose 1
kevin 1
anymore 1
pp 1
##ut 1
attorney 1
fit 1
dan 1
billboard 1
receiving 1
agricultural 1
breaking 1
sought 1
dave 1
admitted 1
lands 1
mexican 1
##bury 1
charlie 1
specifically 1
hole 1
iv 1
howard 1
credit 1
moscow 1
roads 1
accident 1
1923 1
proved 1
wear 1
struck 1
hey 1
guards 1
stuff 1
slid 1
expansion 1
1915 1
cat 1
anthony 1
##kin 1
melbourne 1
opposed 1
sub 1
southwest 1
architect 1
failure 1
plane 1
1916 1
##ron 1
map 1
camera 1
tank 1
listen 1
regarding 1
wet 1
introduction 1
metropolitan 1
link 1
ep 1
fighter 1
inch 1
grown 1
gene 1
anger 1
fixed 1
buy 1
dvd 1
khan 1
domestic 1
worldwide 1
chapel 1
mill 1
functions 1
examples 1
##head 1
developing 1
1910 1
turkey 1
hits 1
pocket 1
antonio 1
papers 1
grow 1
unless 1
circuit 1
18th 1
concerned 1
attached 1
journalist 1
selection 1
journey 1
converted 1
provincial 1
painted 1
hearing 1
aren 1
bands 1
negative 1
aside 1
wondered 1
knight 1
lap 1
survey 1
ma 1
##ow 1
noise 1
billy 1
##ium 1
shooting 1
guide 1
bedroom 1
priest 1
resistance 1
motor 1
homes 1
sounded 1
giant 1
##mer 1
150 1
scenes 1
equal 1
comic 1
patients 1
hidden 1
solid 1
actual 1
bringing 1
afternoon 1
touched 1
funds 1
wedding 1
consisted 1
marie 1
canal 1
sr 1
kim 1
treaty 1
turkish 1
recognition 1
residence 1
cathedral 1
broad 1
knees 1
incident 1
shaped 1
fired 1
norwegian 1
handle 1
cheek 1
contest 1
represent 1
##pe 1
representing 1
beauty 1
##sen 1
birds 1
advantage 1
emergency 1
wrapped 1
drawing 1
notice 1
pink 1
broadcasting 1
##ong 1
somehow 1
bachelor 1
seventh 1
collected 1
registered 1
establishment 1
alan 1
assumed 1
chemical 1
personnel 1
roger 1
retirement 1
jeff 1
portuguese 1
wore 1
tied 1
device 1
threat 1
progress 1
advance 1
##ised 1
banks 1
hired 1
manchester 1
nfl 1
teachers 1
structures 1
forever 1
##bo 1
tennis 1
helping 1
saturday 1
sale 1
applications 1
junction 1
hip 1
incorporated 1
neighborhood 1
dressed 1
ceremony 1
##ds 1
influenced 1
hers 1
visual 1
stairs 1
decades 1
inner 1
kansas 1
hung 1
hoped 1
gain 1
scheduled 1
downtown 1
engaged 1
austria 1
clock 1
norway 1
certainly 1
pale 1
protected 1
1913 1
victor 1
employees 1
plate 1
putting 1
surrounded 1
##ists 1
finishing 1
blues 1
tropical 1
##ries 1
minnesota 1
consider 1
philippines 1
accept 1
54 1
retrieved 1
1900 1
concern 1
anderson 1
properties 1
institution 1
gordon 1
successfully 1
vietnam 1
##dy 1
backing 1
outstanding 1
muslim 1
crossing 1
folk 1
producing 1
usual 1
demand 1
occurs 1
observed 1
lawyer 1
educated 1
##ana 1
kelly 1
string 1
pleasure 1
budget 1
items 1
quietly 1
colorado 1
philip 1
typical 1
##worth 1
derived 1
600 1
survived 1
asks 1
mental 1
##ide 1
56 1
jake 1
jews 1
distinguished 1
ltd 1
1911 1
sri 1
extremely 1
53 1
athletic 1
loud 1
thousands 1
worried 1
shadow 1
transportation 1
horses 1
weapon 1
arena 1
importance 1
users 1
tim 1
objects 1
contributed 1
dragon 1
douglas 1
aware 1
senator 1
johnny 1
jordan 1
sisters 1
engines 1
flag 1
investment 1
samuel 1
shock 1
capable 1
clark 1
row 1
wheel 1
refers 1
session 1
familiar 1
biggest 1
wins 1
hate 1
maintained 1
drove 1
hamilton 1
request 1
expressed 1
injured 1
underground 1
churches 1
walker 1
wars 1
tunnel 1
passes 1
stupid 1
agriculture 1
softly 1
cabinet 1
regarded 1
joining 1
indiana 1
##ea 1
##ms 1
push 1
dates 1
spend 1
behavior 1
woods 1
protein 1
gently 1
chase 1
morgan 1
mention 1
burning 1
wake 1
combination 1
occur 1
mirror 1
leads 1
jimmy 1
indeed 1
impossible 1
singapore 1
paintings 1
covering 1
##nes 1
soldier 1
locations 1
attendance 1
sell 1
historian 1
wisconsin 1
invasion 1
argued 1
painter 1
diego 1
changing 1
egypt 1
##don 1
experienced 1
inches 1
##ku 1
missouri 1
vol 1
grounds 1
spoken 1
switzerland 1
##gan 1
reform 1
rolling 1
ha 1
forget 1
massive 1
resigned 1
burned 1
allen 1
tennessee 1
locked 1
values 1
improved 1
##mo 1
wounded 1
universe 1
sick 1
dating 1
facing 1
pack 1
purchase 1
user 1
##pur 1
moments 1
##ul 1
merged 1
anniversary 1
1908 1
coal 1
brick 1
understood 1
causes 1
dynasty 1
queensland 1
establish 1
stores 1
crisis 1
promote 1
hoping 1
views 1
cards 1
referee 1
extension 1
##si 1
raise 1
arizona 1
improve 1
colonial 1
formal 1
charged 1
##rt 1
palm 1
lucky 1
hide 1
rescue 1
faces 1
95 1
feelings 1
candidates 1
juan 1
##ell 1
goods 1
6th 1
courses 1
weekend 1
59 1
luke 1
cash 1
fallen 1
##om 1
delivered 1
affected 1
installed 1
carefully 1
tries 1
swiss 1
hollywood 1
costs 1
lincoln 1
responsibility 1
##he 1
shore 1
file 1
proper 1
normally 1
maryland 1
assistance 1
jump 1
constant 1
offering 1
friendly 1
waters 1
persons 1
realize 1
contain 1
trophy 1
800 1
partnership 1
factor 1
58 1
musicians 1
cry 1
bound 1
oregon 1
indicated 1
hero 1
houston 1
medium 1
##ure 1
consisting 1
somewhat 1
##ara 1
57 1
cycle 1
##che 1
beer 1
moore 1
frederick 1
gotten 1
eleven 1
worst 1
weak 1
approached 1
arranged 1
chin 1
loan 1
universal 1
bond 1
fifteen 1
pattern 1
disappeared 1
##ney 1
translated 1
##zed 1
lip 1
arab 1
capture 1
interests 1
insurance 1
##chi 1
shifted 1
cave 1
prix 1
warning 1
sections 1
courts 1
coat 1
plot 1
smell 1
feed 1
golf 1
favorite 1
maintain 1
knife 1
vs 1
voted 1
degrees 1
finance 1
quebec 1
opinion 1
translation 1
manner 1
ruled 1
operate 1
productions 1
choose 1
musician 1
discovery 1
confused 1
tired 1
separated 1
stream 1
techniques 1
committed 1
attend 1
ranking 1
kings 1
throw 1
passengers 1
measure 1
horror 1
fan 1
mining 1
sand 1
danger 1
salt 1
calm 1
decade 1
dam 1
require 1
runner 1
##ik 1
rush 1
associate 1
greece 1
##ker 1
rivers 1
consecutive 1
matthew 1
##ski 1
sighed 1
sq 1
documents 1
steam 1
edited 1
closing 1
tie 1
accused 1
1905 1
##ini 1
islamic 1
distributed 1
directors 1
organisation 1
bruce 1
7th 1
breathing 1
mad 1
lit 1
arrival 1
concrete 1
taste 1
08 1
composition 1
shaking 1
faster 1
amateur 1
adjacent 1
stating 1
1906 1
twin 1
flew 1
##ran 1
tokyo 1
publications 1
##tone 1
obviously 1
ridge 1
storage 1
1907 1
carl 1
pages 1
concluded 1
desert 1
driven 1
universities 1
ages 1
terminal 1
sequence 1
borough 1
250 1
constituency 1
creative 1
cousin 1
economics 1
dreams 1
margaret 1
notably 1
reduce 1
montreal 1
mode 1
17th 1
ears 1
saved 1
jan 1
vocal 1
##ica 1
1909 1
andy 1
##jo 1
riding 1
roughly 1
threatened 1
##ise 1
meters 1
meanwhile 1
landed 1
compete 1
repeated 1
grass 1
czech 1
regularly 1
charges 1
tea 1
sudden 1
appeal 1
##ung 1
solution 1
describes 1
pierre 1
classification 1
glad 1
parking 1
##ning 1
belt 1
physics 1
99 1
rachel 1
add 1
hungarian 1
participate 1
expedition 1
damaged 1
gift 1
childhood 1
85 1
fifty 1
##red 1
mathematics 1
jumped 1
letting 1
defensive 1
mph 1
##ux 1
##gh 1
testing 1
##hip 1
hundreds 1
shoot 1
owners 1
matters 1
smoke 1
israeli 1
kentucky 1
dancing 1
mounted 1
grandfather 1
emma 1
designs 1
profit 1
argentina 1
##gs 1
truly 1
li 1
lawrence 1
cole 1
begun 1
detroit 1
willing 1
branches 1
smiling 1
decide 1
miami 1
enjoyed 1
recordings 1
##dale 1
poverty 1
ethnic 1
gay 1
##bi 1
gary 1
arabic 1
09 1
accompanied 1
##one 1
##ons 1
fishing 1
determine 1
residential 1
acid 1
##ary 1
alice 1
returns 1
starred 1
mail 1
##ang 1
jonathan 1
strategy 1
##ue 1
net 1
forty 1
cook 1
businesses 1
equivalent 1
commonwealth 1
distinct 1
ill 1
##cy 1
seriously 1
##ors 1
##ped 1
shift 1
harris 1
replace 1
rio 1
imagine 1
formula 1
ensure 1
##ber 1
additionally 1
scheme 1
conservation 1
occasionally 1
purposes 1
feels 1
favor 1
##and 1
##ore 1
1930s 1
contrast 1
hanging 1
hunt 1
movies 1
1904 1
instruments 1
victims 1
danish 1
christopher 1
busy 1
demon 1
sugar 1
earliest 1
colony 1
studying 1
balance 1
duties 1
##ks 1
belgium 1
slipped 1
carter 1
05 1
visible 1
stages 1
iraq 1
fifa 1
##im 1
commune 1
forming 1
zero 1
07 1
continuing 1
talked 1
counties 1
legend 1
bathroom 1
option 1
tail 1
clay 1
daughters 1
afterwards 1
severe 1
jaw 1
visitors 1
##ded 1
devices 1
aviation 1
russell 1
kate 1
##vi 1
entering 1
subjects 1
##ino 1
temporary 1
swimming 1
forth 1
smooth 1
ghost 1
audio 1
bush 1
operates 1
rocks 1
movements 1
signs 1
eddie 1
##tz 1
ann 1
voices 1
honorary 1
06 1
memories 1
dallas 1
pure 1
measures 1
racial 1
promised 1
66 1
harvard 1
ceo 1
16th 1
parliamentary 1
indicate 1
benefit 1
flesh 1
dublin 1
louisiana 1
1902 1
1901 1
patient 1
sleeping 1
1903 1
membership 1
coastal 1
medieval 1
wanting 1
element 1
scholars 1
rice 1
62 1
limit 1
survive 1
makeup 1
rating 1
definitely 1
collaboration 1
obvious 1
##tan 1
boss 1
ms 1
baron 1
birthday 1
linked 1
soil 1
diocese 1
##lan 1
ncaa 1
##mann 1
offensive 1
shell 1
shouldn 1
waist 1
##tus 1
plain 1
ross 1
organ 1
resolution 1
manufacturing 1
adding 1
relative 1
kennedy 1
98 1
whilst 1
moth 1
marketing 1
gardens 1
crash 1
72 1
heading 1
partners 1
credited 1
carlos 1
moves 1
cable 1
##zi 1
marshall 1
##out 1
depending 1
bottle 1
represents 1
rejected 1
responded 1
existed 1
04 1
jobs 1
denmark 1
lock 1
##ating 1
treated 1
graham 1
routes 1
talent 1
commissioner 1
drugs 1
secure 1
tests 1
reign 1
restored 1
photography 1
##gi 1
contributions 1
oklahoma 1
designer 1
disc 1
grin 1
seattle 1
robin 1
paused 1
atlanta 1
unusual 1
##gate 1
praised 1
las 1
laughing 1
satellite 1
hungary 1
visiting 1
##sky 1
interesting 1
factors 1
deck 1
poems 1
norman 1
##water 1
stuck 1
speaker 1
rifle 1
domain 1
premiered 1
##her 1
dc 1
comics 1
actors 1
01 1
reputation 1
eliminated 1
8th 1
ceiling 1
prisoners 1
script 1
##nce 1
leather 1
austin 1
mississippi 1
rapidly 1
admiral 1
parallel 1
charlotte 1
guilty 1
tools 1
gender 1
divisions 1
fruit 1
##bs 1
laboratory 1
nelson 1
fantasy 1
marry 1
rapid 1
aunt 1
tribe 1
requirements 1
aspects 1
suicide 1
amongst 1
adams 1
bone 1
ukraine 1
abc 1
kick 1
sees 1
edinburgh 1
clothing 1
column 1
rough 1
gods 1
hunting 1
broadway 1
gathered 1
concerns 1
##ek 1
spending 1
ty 1
12th 1
snapped 1
requires 1
solar 1
bones 1
cavalry 1
##tta 1
iowa 1
drinking 1
waste 1
index 1
franklin 1
charity 1
thompson 1
stewart 1
tip 1
flash 1
landscape 1
friday 1
enjoy 1
singh 1
poem 1
listening 1
##back 1
eighth 1
fred 1
differences 1
adapted 1
bomb 1
ukrainian 1
surgery 1
corporate 1
masters 1
anywhere 1
##more 1
waves 1
odd 1
sean 1
portugal 1
orleans 1
dick 1
debate 1
kent 1
eating 1
puerto 1
cleared 1
96 1
expect 1
cinema 1
97 1
guitarist 1
blocks 1
electrical 1
agree 1
involving 1
depth 1
dying 1
panel 1
struggle 1
##ged 1
peninsula 1
adults 1
novels 1
emerged 1
vienna 1
metro 1
debuted 1
shoes 1
tamil 1
songwriter 1
meets 1
prove 1
beating 1
instance 1
heaven 1
scared 1
sending 1
marks 1
artistic 1
passage 1
superior 1
03 1
significantly 1
shopping 1
##tive 1
retained 1
##izing 1
malaysia 1
technique 1
cheeks 1
##ola 1
warren 1
maintenance 1
destroy 1
extreme 1
allied 1
120 1
appearing 1
##yn 1
fill 1
advice 1
alabama 1
qualifying 1
policies 1
cleveland 1
hat 1
battery 1
smart 1
authors 1
10th 1
soundtrack 1
acted 1
dated 1
lb 1
glance 1
equipped 1
coalition 1
funny 1
outer 1
ambassador 1
roy 1
possibility 1
couples 1
campbell 1
dna 1
loose 1
ethan 1
supplies 1
1898 1
gonna 1
88 1
monster 1
##res 1
shake 1
agents 1
frequency 1
springs 1
dogs 1
practices 1
61 1
gang 1
plastic 1
easier 1
suggests 1
gulf 1
blade 1
exposed 1
colors 1
industries 1
markets 1
pan 1
nervous 1
electoral 1
charts 1
legislation 1
ownership 1
##idae 1
mac 1
appointment 1
shield 1
copy 1
assault 1
socialist 1
abbey 1
monument 1
license 1
throne 1
employment 1
jay 1
93 1
replacement 1
charter 1
cloud 1
powered 1
suffering 1
accounts 1
oak 1
connecticut 1
strongly 1
wright 1
colour 1
crystal 1
13th 1
context 1
welsh 1
networks 1
voiced 1
gabriel 1
jerry 1
##cing 1
forehead 1
mp 1
##ens 1
manage 1
schedule 1
totally 1
remix 1
##ii 1
forests 1
occupation 1
print 1
nicholas 1
brazilian 1
strategic 1
vampires 1
engineers 1
76 1
roots 1
seek 1
correct 1
instrumental 1
und 1
alfred 1
backed 1
hop 1
##des 1
stanley 1
robinson 1
traveled 1
wayne 1
welcome 1
austrian 1
achieve 1
67 1
exit 1
rates 1
1899 1
strip 1
whereas 1
##cs 1
sing 1
deeply 1
adventure 1
bobby 1
rick 1
jamie 1
careful 1
components 1
cap 1
useful 1
personality 1
knee 1
##shi 1
pushing 1
hosts 1
02 1
protest 1
ca 1
ottoman 1
symphony 1
##sis 1
63 1
boundary 1
1890 1
processes 1
considering 1
considerable 1
tons 1
##work 1
##ft 1
##nia 1
cooper 1
trading 1
dear 1
conduct 1
91 1
illegal 1
apple 1
revolutionary 1
holiday 1
definition 1
harder 1
##van 1
jacob 1
circumstances 1
destruction 1
##lle 1
popularity 1
grip 1
classified 1
liverpool 1
donald 1
baltimore 1
flows 1
seeking 1
honour 1
approval 1
92 1
mechanical 1
till 1
happening 1
statue 1
critic 1
increasingly 1
immediate 1
describe 1
commerce 1
stare 1
##ster 1
indonesia 1
meat 1
rounds 1
boats 1
baker 1
orthodox 1
depression 1
formally 1
worn 1
naked 1
claire 1
muttered 1
sentence 1
11th 1
emily 1
document 1
77 1
criticism 1
wished 1
vessel 1
spiritual 1
bent 1
virgin 1
parker 1
minimum 1
murray 1
lunch 1
danny 1
printed 1
compilation 1
keyboards 1
false 1
blow 1
belonged 1
68 1
raising 1
78 1
cutting 1
##board 1
pittsburgh 1
##up 1
9th 1
shadows 1
81 1
hated 1
indigenous 1
jon 1
15th 1
barry 1
scholar 1
ah 1
##zer 1
oliver 1
##gy 1
stick 1
susan 1
meetings 1
attracted 1
spell 1
romantic 1
##ver 1
ye 1
1895 1
photo 1
demanded 1
customers 1
##ac 1
1896 1
logan 1
revival 1
keys 1
modified 1
commanded 1
jeans 1
##ious 1
upset 1
raw 1
phil 1
detective 1
hiding 1
resident 1
vincent 1
##bly 1
experiences 1
diamond 1
defeating 1
coverage 1
lucas 1
external 1
parks 1
franchise 1
helen 1
bible 1
successor 1
percussion 1
celebrated 1
il 1
lift 1
profile 1
clan 1
romania 1
##ied 1
mills 1
##su 1
nobody 1
achievement 1
shrugged 1
fault 1
1897 1
rhythm 1
initiative 1
breakfast 1
carbon 1
700 1
69 1
lasted 1
violent 1
74 1
wound 1
ken 1
killer 1
gradually 1
filmed 1
°c 1
dollars 1
processing 1
94 1
remove 1
criticized 1
guests 1
sang 1
chemistry 1
##vin 1
legislature 1
disney 1
##bridge 1
uniform 1
escaped 1
integrated 1
proposal 1
purple 1
denied 1
liquid 1
karl 1
influential 1
morris 1
nights 1
stones 1
intense 1
experimental 1
twisted 1
71 1
84 1
##ld 1
pace 1
nazi 1
mitchell 1
ny 1
blind 1
reporter 1
newspapers 1
14th 1
centers 1
burn 1
basin 1
forgotten 1
surviving 1
filed 1
collections 1
monastery 1
losses 1
manual 1
couch 1
description 1
appropriate 1
merely 1
tag 1
missions 1
sebastian 1
restoration 1
replacing 1
triple 1
73 1
elder 1
julia 1
warriors 1
benjamin 1
julian 1
convinced 1
stronger 1
amazing 1
declined 1
versus 1
merchant 1
happens 1
output 1
finland 1
bare 1
barbara 1
absence 1
ignored 1
dawn 1
injuries 1
##port 1
producers 1
##ram 1
82 1
luis 1
##ities 1
kw 1
admit 1
expensive 1
electricity 1
nba 1
exception 1
symbol 1
##ving 1
ladies 1
shower 1
sheriff 1
characteristics 1
##je 1
aimed 1
button 1
ratio 1
effectively 1
summit 1
angle 1
jury 1
bears 1
foster 1
vessels 1
pants 1
executed 1
evans 1
dozen 1
advertising 1
kicked 1
patrol 1
1889 1
competitions 1
lifetime 1
principles 1
athletics 1
##logy 1
birmingham 1
sponsored 1
89 1
rob 1
nomination 1
1893 1
acoustic 1
##sm 1
creature 1
longest 1
##tra 1
credits 1
harbor 1
dust 1
josh 1
##so 1
territories 1
milk 1
infrastructure 1
completion 1
thailand 1
indians 1
leon 1
archbishop 1
##sy 1
assist 1
pitch 1
blake 1
arrangement 1
girlfriend 1
serbian 1
operational 1
hence 1
sad 1
scent 1
fur 1
dj 1
sessions 1
hp 1
refer 1
rarely 1
##ora 1
exists 1
1892 1
##ten 1
scientists 1
dirty 1
penalty 1
burst 1
portrait 1
seed 1
79 1
pole 1
limits 1
rival 1
1894 1
stable 1
alpha 1
grave 1
constitutional 1
alcohol 1
arrest 1
flower 1
mystery 1
devil 1
architectural 1
relationships 1
greatly 1
habitat 1
##istic 1
larry 1
progressive 1
remote 1
cotton 1
##ics 1
##ok 1
preserved 1
reaches 1
##ming 1
cited 1
86 1
vast 1
scholarship 1
decisions 1
cbs 1
joy 1
teach 1
1885 1
editions 1
knocked 1
eve 1
searching 1
partly 1
participation 1
gap 1
animated 1
fate 1
excellent 1
##ett 1
na 1
87 1
alternate 1
saints 1
youngest 1
##ily 1
climbed 1
##ita 1
##tors 1
suggest 1
##ct 1
discussion 1
staying 1
choir 1
lakes 1
jacket 1
revenue 1
nevertheless 1
peaked 1
instrument 1
wondering 1
annually 1
managing 1
neil 1
1891 1
signing 1
terry 1
##ice 1
apply 1
clinical 1
brooklyn 1
aim 1
catherine 1
fuck 1
farmers 1
figured 1
ninth 1
pride 1
hugh 1
evolution 1
ordinary 1
involvement 1
comfortable 1
shouted 1
tech 1
encouraged 1
taiwan 1
representation 1
sharing 1
##lia 1
##em 1
panic 1
exact 1
cargo 1
competing 1
fat 1
cried 1
83 1
1920s 1
occasions 1
pa 1
cabin 1
borders 1
utah 1
marcus 1
##isation 1
badly 1
muscles 1
##ance 1
victorian 1
transition 1
warner 1
bet 1
permission 1
##rin 1
slave 1
terrible 1
similarly 1
shares 1
seth 1
uefa 1
possession 1
medals 1
benefits 1
colleges 1
lowered 1
perfectly 1
mall 1
transit 1
##ye 1
##kar 1
publisher 1
##ened 1
harrison 1
deaths 1
elevation 1
##ae 1
asleep 1
machines 1
sigh 1
ash 1
hardly 1
argument 1
occasion 1
parent 1
leo 1
decline 1
1888 1
contribution 1
##ua 1
concentration 1
1000 1
opportunities 1
hispanic 1
guardian 1
extent 1
emotions 1
hips 1
mason 1
volumes 1
bloody 1
controversy 1
diameter 1
steady 1
mistake 1
phoenix 1
identify 1
violin 1
##sk 1
departure 1
richmond 1
spin 1
funeral 1
enemies 1
1864 1
gear 1
literally 1
connor 1
random 1
sergeant 1
grab 1
confusion 1
1865 1
transmission 1
informed 1
op 1
leaning 1
sacred 1
suspended 1
thinks 1
gates 1
portland 1
luck 1
agencies 1
yours 1
hull 1
expert 1
muscle 1
layer 1
practical 1
sculpture 1
jerusalem 1
latest 1
lloyd 1
statistics 1
deeper 1
recommended 1
warrior 1
arkansas 1
mess 1
supports 1
greg 1
eagle 1
1880 1
recovered 1
rated 1
concerts 1
rushed 1
##ano 1
stops 1
eggs 1
files 1
premiere 1
keith 1
##vo 1
delhi 1
turner 1
pit 1
affair 1
belief 1
paint 1
##zing 1
mate 1
##ach 1
##ev 1
victim 1
##ology 1
withdrew 1
bonus 1
styles 1
fled 1
##ud 1
glasgow 1
technologies 1
funded 1
nbc 1
adaptation 1
##ata 1
portrayed 1
cooperation 1
supporters 1
judges 1
bernard 1
justin 1
hallway 1
ralph 1
##ick 1
graduating 1
controversial 1
distant 1
continental 1
spider 1
bite 1
##ho 1
recognize 1
intention 1
mixing 1
##ese 1
egyptian 1
bow 1
tourism 1
suppose 1
claiming 1
tiger 1
dominated 1
participants 1
vi 1
##ru 1
nurse 1
partially 1
tape 1
##rum 1
psychology 1
##rn 1
essential 1
touring 1
duo 1
voting 1
civilian 1
emotional 1
channels 1
##king 1
apparent 1
hebrew 1
1887 1
tommy 1
carrier 1
intersection 1
beast 1
hudson 1
##gar 1
##zo 1
lab 1
nova 1
bench 1
discuss 1
costa 1
##ered 1
detailed 1
behalf 1
drivers 1
unfortunately 1
obtain 1
##lis 1
rocky 1
##dae 1
siege 1
friendship 1
honey 1
##rian 1
1861 1
amy 1
hang 1
posted 1
governments 1
collins 1
respond 1
wildlife 1
preferred 1
operator 1
##po 1
laura 1
pregnant 1
videos 1
dennis 1
suspected 1
boots 1
instantly 1
weird 1
automatic 1
businessman 1
alleged 1
placing 1
throwing 1
ph 1
mood 1
1862 1
perry 1
venue 1
jet 1
remainder 1
##lli 1
##ci 1
passion 1
biological 1
boyfriend 1
1863 1
dirt 1
buffalo 1
ron 1
segment 1
fa 1
abuse 1
##era 1
genre 1
thrown 1
stroke 1
colored 1
stress 1
exercise 1
displayed 1
##gen 1
struggled 1
##tti 1
abroad 1
dramatic 1
wonderful 1
thereafter 1
madrid 1
component 1
widespread 1
##sed 1
tale 1
citizen 1
todd 1
monday 1
1886 1
vancouver 1
overseas 1
forcing 1
crying 1
descent 1
##ris 1
discussed 1
substantial 1
ranks 1
regime 1
1870 1
provinces 1
switch 1
drum 1
zane 1
ted 1
tribes 1
proof 1
lp 1
cream 1
researchers 1
volunteer 1
manor 1
silk 1
milan 1
donated 1
allies 1
venture 1
principle 1
delivery 1
enterprise 1
##ves 1
##ans 1
bars 1
traditionally 1
witch 1
reminded 1
copper 1
##uk 1
pete 1
inter 1
links 1
colin 1
grinned 1
elsewhere 1
competitive 1
frequent 1
##oy 1
scream 1
##hu 1
tension 1
texts 1
submarine 1
finnish 1
defending 1
defend 1
pat 1
detail 1
1884 1
affiliated 1
stuart 1
themes 1
villa 1
periods 1
tool 1
belgian 1
ruling 1
crimes 1
answers 1
folded 1
licensed 1
resort 1
demolished 1
hans 1
lucy 1
1881 1
lion 1
traded 1
photographs 1
writes 1
craig 1
##fa 1
trials 1
generated 1
beth 1
noble 1
debt 1
percentage 1
yorkshire 1
erected 1
ss 1
viewed 1
grades 1
confidence 1
ceased 1
islam 1
telephone 1
retail 1
##ible 1
chile 1
m² 1
roberts 1
sixteen 1
##ich 1
commented 1
hampshire 1
innocent 1
dual 1
pounds 1
checked 1
regulations 1
afghanistan 1
sung 1
rico 1
liberty 1
assets 1
bigger 1
options 1
angels 1
relegated 1
tribute 1
wells 1
attending 1
leaf 1
##yan 1
butler 1
romanian 1
forum 1
monthly 1
lisa 1
patterns 1
gmina 1
##tory 1
madison 1
hurricane 1
rev 1
##ians 1
bristol 1
##ula 1
elite 1
valuable 1
disaster 1
democracy 1
awareness 1
germans 1
freyja 1
##ins 1
loop 1
absolutely 1
paying 1
populations 1
maine 1
sole 1
prayer 1
spencer 1
releases 1
doorway 1
bull 1
##ani 1
lover 1
midnight 1
conclusion 1
##sson 1
thirteen 1
lily 1
mediterranean 1
##lt 1
nhl 1
proud 1
sample 1
##hill 1
drummer 1
guinea 1
##ova 1
murphy 1
climb 1
##ston 1
instant 1
attributed 1
horn 1
ain 1
railways 1
steven 1
##ao 1
autumn 1
ferry 1
opponent 1
root 1
traveling 1
secured 1
corridor 1
stretched 1
tales 1
sheet 1
trinity 1
cattle 1
helps 1
indicates 1
manhattan 1
murdered 1
fitted 1
1882 1
gentle 1
grandmother 1
mines 1
shocked 1
vegas 1
produces 1
##light 1
caribbean 1
##ou 1
belong 1
continuous 1
desperate 1
drunk 1
historically 1
trio 1
waved 1
raf 1
dealing 1
nathan 1
bat 1
murmured 1
interrupted 1
residing 1
scientist 1
pioneer 1
harold 1
aaron 1
##net 1
delta 1
attempting 1
minority 1
mini 1
believes 1
chorus 1
tend 1
lots 1
eyed 1
indoor 1
load 1
shots 1
updated 1
jail 1
##llo 1
concerning 1
connecting 1
wealth 1
##ved 1
slaves 1
arrive 1
rangers 1
sufficient 1
rebuilt 1
##wick 1
cardinal 1
flood 1
muhammad 1
whenever 1
relation 1
runners 1
moral 1
repair 1
viewers 1
arriving 1
revenge 1
punk 1
assisted 1
bath 1
fairly 1
breathe 1
lists 1
innings 1
illustrated 1
whisper 1
nearest 1
voters 1
clinton 1
ties 1
ultimate 1
screamed 1
beijing 1
lions 1
andre 1
fictional 1
gathering 1
comfort 1
radar 1
suitable 1
dismissed 1
hms 1
ban 1
pine 1
wrist 1
atmosphere 1
voivodeship 1
bid 1
timber 1
##ned 1
##nan 1
giants 1
##ane 1
cameron 1
recovery 1
uss 1
identical 1
categories 1
switched 1
serbia 1
laughter 1
noah 1
ensemble 1
therapy 1
peoples 1
touching 1
##off 1
locally 1
pearl 1
platforms 1
everywhere 1
ballet 1
tables 1
lanka 1
herbert 1
outdoor 1
toured 1
derek 1
1883 1
spaces 1
contested 1
swept 1
1878 1
exclusive 1
slight 1
connections 1
##dra 1
winds 1
prisoner 1
collective 1
bangladesh 1
tube 1
publicly 1
wealthy 1
thai 1
##ys 1
isolated 1
select 1
##ric 1
insisted 1
pen 1
fortune 1
ticket 1
spotted 1
reportedly 1
animation 1
enforcement 1
tanks 1
110 1
decides 1
wider 1
lowest 1
owen 1
##time 1
nod 1
hitting 1
##hn 1
gregory 1
furthermore 1
magazines 1
fighters 1
solutions 1
##ery 1
pointing 1
requested 1
peru 1
reed 1
chancellor 1
knights 1
mask 1
worker 1
eldest 1
flames 1
reduction 1
1860 1
volunteers 1
##tis 1
reporting 1
##hl 1
wire 1
advisory 1
endemic 1
origins 1
settlers 1
pursue 1
knock 1
consumer 1
1876 1
eu 1
compound 1
creatures 1
mansion 1
sentenced 1
ivan 1
deployed 1
guitars 1
frowned 1
involves 1
mechanism 1
kilometers 1
perspective 1
shops 1
maps 1
terminus 1
duncan 1
alien 1
fist 1
bridges 1
##pers 1
heroes 1
fed 1
derby 1
swallowed 1
##ros 1
patent 1
sara 1
illness 1
characterized 1
adventures 1
slide 1
hawaii 1
jurisdiction 1
##op 1
organised 1
##side 1
adelaide 1
walks 1
biology 1
se 1
##ties 1
rogers 1
swing 1
tightly 1
boundaries 1
##rie 1
prepare 1
implementation 1
stolen 1
##sha 1
certified 1
colombia 1
edwards 1
garage 1
##mm 1
recalled 1
##ball 1
rage 1
harm 1
nigeria 1
breast 1
##ren 1
furniture 1
pupils 1
settle 1
##lus 1
cuba 1
balls 1
client 1
alaska 1
21st 1
linear 1
thrust 1
celebration 1
latino 1
genetic 1
terror 1
##cia 1
##ening 1
lightning 1
fee 1
witness 1
lodge 1
establishing 1
skull 1
##ique 1
earning 1
hood 1
##ei 1
rebellion 1
wang 1
sporting 1
warned 1
missile 1
devoted 1
activist 1
porch 1
worship 1
fourteen 1
package 1
1871 1
decorated 1
##shire 1
housed 1
##ock 1
chess 1
sailed 1
doctors 1
oscar 1
joan 1
treat 1
garcia 1
harbour 1
jeremy 1
##ire 1
traditions 1
dominant 1
jacques 1
##gon 1
##wan 1
relocated 1
1879 1
amendment 1
sized 1
companion 1
simultaneously 1
volleyball 1
spun 1
acre 1
increases 1
stopping 1
loves 1
belongs 1
affect 1
drafted 1
tossed 1
scout 1
battles 1
1875 1
filming 1
shoved 1
munich 1
tenure 1
vertical 1
romance 1
pc 1
##cher 1
argue 1
##ical 1
craft 1
ranging 1
www 1
opens 1
honest 1
tyler 1
yesterday 1
virtual 1
##let 1
muslims 1
reveal 1
snake 1
immigrants 1
radical 1
screaming 1
speakers 1
firing 1
saving 1
belonging 1
ease 1
lighting 1
prefecture 1
blame 1
farmer 1
hungry 1
grows 1
rubbed 1
beam 1
sur 1
subsidiary 1
##cha 1
armenian 1
sao 1
dropping 1
conventional 1
##fer 1
microsoft 1
reply 1
qualify 1
spots 1
1867 1
sweat 1
festivals 1
##ken 1
immigration 1
physician 1
discover 1
exposure 1
sandy 1
explanation 1
isaac 1
implemented 1
##fish 1
hart 1
initiated 1
connect 1
stakes 1
presents 1
heights 1
householder 1
pleased 1
tourist 1
regardless 1
slip 1
closest 1
##ction 1
surely 1
sultan 1
brings 1
riley 1
preparation 1
aboard 1
slammed 1
baptist 1
experiment 1
ongoing 1
interstate 1
organic 1
playoffs 1
##ika 1
1877 1
130 1
##tar 1
hindu 1
error 1
tours 1
tier 1
plenty 1
arrangements 1
talks 1
trapped 1
excited 1
sank 1
ho 1
athens 1
1872 1
denver 1
welfare 1
suburb 1
athletes 1
trick 1
diverse 1
belly 1
exclusively 1
yelled 1
1868 1
##med 1
conversion 1
##ette 1
1874 1
internationally 1
computers 1
conductor 1
abilities 1
sensitive 1
hello 1
dispute 1
measured 1
globe 1
rocket 1
prices 1
amsterdam 1
flights 1
tigers 1
inn 1
municipalities 1
emotion 1
references 1
3d 1
##mus 1
explains 1
airlines 1
manufactured 1
pm 1
archaeological 1
1873 1
interpretation 1
devon 1
comment 1
##ites 1
settlements 1
kissing 1
absolute 1
improvement 1
suite 1
impressed 1
barcelona 1
sullivan 1
jefferson 1
towers 1
jesse 1
julie 1
##tin 1
##lu 1
grandson 1
hi 1
gauge 1
regard 1
rings 1
interviews 1
trace 1
raymond 1
thumb 1
departments 1
burns 1
serial 1
bulgarian 1
scores 1
demonstrated 1
##ix 1
1866 1
kyle 1
alberta 1
underneath 1
romanized 1
##ward 1
relieved 1
acquisition 1
phrase 1
cliff 1
reveals 1
han 1
cuts 1
merger 1
custom 1
##dar 1
nee 1
gilbert 1
graduation 1
##nts 1
assessment 1
cafe 1
difficulty 1
demands 1
swung 1
democrat 1
jennifer 1
commons 1
1940s 1
grove 1
##yo 1
completing 1
focuses 1
sum 1
substitute 1
bearing 1
stretch 1
reception 1
##py 1
reflected 1
essentially 1
destination 1
pairs 1
##ched 1
survival 1
resource 1
##bach 1
promoting 1
doubles 1
messages 1
tear 1
##down 1
##fully 1
parade 1
florence 1
harvey 1
incumbent 1
partial 1
framework 1
900 1
pedro 1
frozen 1
procedure 1
olivia 1
controls 1
##mic 1
shelter 1
personally 1
temperatures 1
##od 1
brisbane 1
tested 1
sits 1
marble 1
comprehensive 1
oxygen 1
leonard 1
##kov 1
inaugural 1
iranian 1
referring 1
quarters 1
attitude 1
##ivity 1
mainstream 1
lined 1
mars 1
dakota 1
norfolk 1
unsuccessful 1
##° 1
explosion 1
helicopter 1
congressional 1
##sing 1
inspector 1
bitch 1
seal 1
departed 1
divine 1
##ters 1
coaching 1
examination 1
punishment 1
manufacturer 1
sink 1
columns 1
unincorporated 1
signals 1
nevada 1
squeezed 1
dylan 1
dining 1
photos 1
martial 1
manuel 1
eighteen 1
elevator 1
brushed 1
plates 1
ministers 1
ivy 1
congregation 1
##len 1
slept 1
specialized 1
taxes 1
curve 1
restricted 1
negotiations 1
likes 1
statistical 1
arnold 1
inspiration 1
execution 1
bold 1
intermediate 1
significance 1
margin 1
ruler 1
wheels 1
gothic 1
intellectual 1
dependent 1
listened 1
eligible 1
buses 1
widow 1
syria 1
earn 1
cincinnati 1
collapsed 1
recipient 1
secrets 1
accessible 1
philippine 1
maritime 1
goddess 1
clerk 1
surrender 1
breaks 1
playoff 1
database 1
##ified 1
##lon 1
ideal 1
beetle 1
aspect 1
soap 1
regulation 1
strings 1
expand 1
anglo 1
shorter 1
crosses 1
retreat 1
tough 1
coins 1
wallace 1
directions 1
pressing 1
##oon 1
shipping 1
locomotives 1
comparison 1
topics 1
nephew 1
##mes 1
distinction 1
honors 1
travelled 1
sierra 1
ibn 1
##over 1
fortress 1
sa 1
recognised 1
carved 1
1869 1
clients 1
##dan 1
intent 1
##mar 1
coaches 1
describing 1
bread 1
##ington 1
beaten 1
northwestern 1
##ona 1
merit 1
youtube 1
collapse 1
challenges 1
em 1
historians 1
objective 1
submitted 1
virus 1
attacking 1
drake 1
assume 1
##ere 1
diseases 1
marc 1
stem 1
leeds 1
##cus 1
##ab 1
farming 1
glasses 1
##lock 1
visits 1
nowhere 1
fellowship 1
relevant 1
carries 1
restaurants 1
experiments 1
101 1
constantly 1
bases 1
targets 1
shah 1
tenth 1
opponents 1
verse 1
territorial 1
##ira 1
writings 1
corruption 1
##hs 1
instruction 1
inherited 1
reverse 1
emphasis 1
##vic 1
employee 1
arch 1
keeps 1
rabbi 1
watson 1
payment 1
uh 1
##ala 1
nancy 1
##tre 1
venice 1
fastest 1
sexy 1
banned 1
adrian 1
properly 1
ruth 1
touchdown 1
dollar 1
boards 1
metre 1
circles 1
edges 1
favour 1
comments 1
ok 1
travels 1
liberation 1
scattered 1
firmly 1
##ular 1
holland 1
permitted 1
diesel 1
kenya 1
den 1
originated 1
##ral 1
demons 1
resumed 1
dragged 1
rider 1
##rus 1
servant 1
blinked 1
extend 1
torn 1
##ias 1
##sey 1
input 1
meal 1
everybody 1
cylinder 1
kinds 1
camps 1
##fe 1
bullet 1
logic 1
##wn 1
croatian 1
evolved 1
healthy 1
fool 1
chocolate 1
wise 1
preserve 1
pradesh 1
##ess 1
respective 1
1850 1
##ew 1
chicken 1
artificial 1
gross 1
corresponding 1
convicted 1
cage 1
caroline 1
dialogue 1
##dor 1
narrative 1
stranger 1
mario 1
br 1
christianity 1
failing 1
trent 1
commanding 1
buddhist 1
1848 1
maurice 1
focusing 1
yale 1
bike 1
altitude 1
##ering 1
mouse 1
revised 1
##sley 1
veteran 1
##ig 1
pulls 1
theology 1
crashed 1
campaigns 1
legion 1
##ability 1
drag 1
excellence 1
customer 1
cancelled 1
intensity 1
excuse 1
##lar 1
liga 1
participating 1
contributing 1
printing 1
##burn 1
variable 1
##rk 1
curious 1
bin 1
legacy 1
renaissance 1
##my 1
symptoms 1
binding 1
vocalist 1
dancer 1
##nie 1
grammar 1
gospel 1
democrats 1
ya 1
enters 1
sc 1
diplomatic 1
hitler 1
##ser 1
clouds 1
mathematical 1
quit 1
defended 1
oriented 1
##heim 1
fundamental 1
hardware 1
impressive 1
equally 1
convince 1
confederate 1
guilt 1
chuck 1
sliding 1
##ware 1
magnetic 1
narrowed 1
petersburg 1
bulgaria 1
otto 1
phd 1
skill 1
##ama 1
reader 1
hopes 1
pitcher 1
reservoir 1
hearts 1
automatically 1
expecting 1
mysterious 1
bennett 1
extensively 1
imagined 1
seeds 1
monitor 1
fix 1
##ative 1
journalism 1
struggling 1
signature 1
ranch 1
encounter 1
photographer 1
observation 1
protests 1
##pin 1
influences 1
##hr 1
calendar 1
##all 1
cruz 1
croatia 1
locomotive 1
hughes 1
naturally 1
shakespeare 1
basement 1
hook 1
uncredited 1
faded 1
theories 1
approaches 1
dare 1
phillips 1
filling 1
fury 1
obama 1
##ain 1
efficient 1
arc 1
deliver 1
min 1
raid 1
breeding 1
inducted 1
leagues 1
efficiency 1
axis 1
montana 1
eagles 1
##ked 1
supplied 1
instructions 1
karen 1
picking 1
indicating 1
trap 1
anchor 1
practically 1
christians 1
tomb 1
vary 1
occasional 1
electronics 1
lords 1
readers 1
newcastle 1
faint 1
innovation 1
collect 1
situations 1
engagement 1
160 1
claude 1
mixture 1
##feld 1
peer 1
tissue 1
logo 1
lean 1
##ration 1
°f 1
floors 1
##ven 1
architects 1
reducing 1
##our 1
##ments 1
rope 1
1859 1
ottawa 1
##har 1
samples 1
banking 1
declaration 1
proteins 1
resignation 1
francois 1
saudi 1
advocate 1
exhibited 1
armor 1
twins 1
divorce 1
##ras 1
abraham 1
reviewed 1
jo 1
temporarily 1
matrix 1
physically 1
pulse 1
curled 1
##ena 1
difficulties 1
bengal 1
usage 1
##ban 1
annie 1
riders 1
certificate 1
##pi 1
holes 1
warsaw 1
distinctive 1
jessica 1
##mon 1
mutual 1
1857 1
customs 1
circular 1
eugene 1
removal 1
loaded 1
mere 1
vulnerable 1
depicted 1
generations 1
dame 1
heir 1
enormous 1
lightly 1
climbing 1
pitched 1
lessons 1
pilots 1
nepal 1
ram 1
google 1
preparing 1
brad 1
louise 1
renowned 1
##₂ 1
liam 1
##ably 1
plaza 1
shaw 1
sophie 1
brilliant 1
bills 1
##bar 1
##nik 1
fucking 1
mainland 1
server 1
pleasant 1
seized 1
veterans 1
jerked 1
fail 1
beta 1
brush 1
radiation 1
stored 1
warmth 1
southeastern 1
nate 1
sin 1
raced 1
berkeley 1
joke 1
athlete 1
designation 1
trunk 1
##low 1
roland 1
qualification 1
archives 1
heels 1
artwork 1
receives 1
judicial 1
reserves 1
##bed 1
woke 1
installation 1
abu 1
floating 1
fake 1
lesser 1
excitement 1
interface 1
concentrated 1
addressed 1
characteristic 1
amanda 1
saxophone 1
monk 1
auto 1
##bus 1
releasing 1
egg 1
dies 1
interaction 1
defender 1
ce 1
outbreak 1
glory 1
loving 1
##bert 1
sequel 1
consciousness 1
http 1
awake 1
ski 1
enrolled 1
##ress 1
handling 1
rookie 1
brow 1
somebody 1
biography 1
warfare 1
amounts 1
contracts 1
presentation 1
fabric 1
dissolved 1
challenged 1
meter 1
psychological 1
lt 1
elevated 1
rally 1
accurate 1
##tha 1
hospitals 1
undergraduate 1
specialist 1
venezuela 1
exhibit 1
shed 1
nursing 1
protestant 1
fluid 1
structural 1
footage 1
jared 1
consistent 1
prey 1
##ska 1
succession 1
reflect 1
exile 1
lebanon 1
wiped 1
suspect 1
shanghai 1
resting 1
integration 1
preservation 1
marvel 1
variant 1
pirates 1
sheep 1
rounded 1
capita 1
sailing 1
colonies 1
manuscript 1
deemed 1
variations 1
clarke 1
functional 1
emerging 1
boxing 1
relaxed 1
curse 1
azerbaijan 1
heavyweight 1
nickname 1
editorial 1
rang 1
grid 1
tightened 1
earthquake 1
flashed 1
miguel 1
rushing 1
##ches 1
improvements 1
boxes 1
brooks 1
180 1
consumption 1
molecular 1
felix 1
societies 1
repeatedly 1
variation 1
aids 1
civic 1
graphics 1
professionals 1
realm 1
autonomous 1
receiver 1
delayed 1
workshop 1
militia 1
chairs 1
trump 1
canyon 1
##point 1
harsh 1
extending 1
lovely 1
happiness 1
##jan 1
stake 1
eyebrows 1
embassy 1
wellington 1
hannah 1
##ella 1
sony 1
corners 1
bishops 1
swear 1
cloth 1
contents 1
xi 1
namely 1
commenced 1
1854 1
stanford 1
nashville 1
courage 1
graphic 1
commitment 1
garrison 1
##bin 1
hamlet 1
clearing 1
rebels 1
attraction 1
literacy 1
cooking 1
ruins 1
temples 1
jenny 1
humanity 1
celebrate 1
hasn 1
freight 1
sixty 1
rebel 1
bastard 1
##art 1
newton 1
##ada 1
deer 1
##ges 1
##ching 1
smiles 1
delaware 1
singers 1
##ets 1
approaching 1
assists 1
flame 1
##ph 1
boulevard 1
barrel 1
planted 1
##ome 1
pursuit 1
##sia 1
consequences 1
posts 1
shallow 1
invitation 1
rode 1
depot 1
ernest 1
kane 1
rod 1
concepts 1
preston 1
topic 1
chambers 1
striking 1
blast 1
arrives 1
descendants 1
montgomery 1
ranges 1
worlds 1
##lay 1
##ari 1
span 1
chaos 1
praise 1
##ag 1
fewer 1
1855 1
sanctuary 1
mud 1
fbi 1
##ions 1
programmes 1
maintaining 1
unity 1
harper 1
bore 1
handsome 1
closure 1
tournaments 1
thunder 1
nebraska 1
linda 1
facade 1
puts 1
satisfied 1
argentine 1
dale 1
cork 1
dome 1
panama 1
##yl 1
1858 1
tasks 1
experts 1
##ates 1
feeding 1
equation 1
##las 1
##ida 1
##tu 1
engage 1
bryan 1
##ax 1
um 1
quartet 1
melody 1
disbanded 1
sheffield 1
blocked 1
gasped 1
delay 1
kisses 1
maggie 1
connects 1
##non 1
sts 1
poured 1
creator 1
publishers 1
##we 1
guided 1
ellis 1
extinct 1
hug 1
gaining 1
##ord 1
complicated 1
##bility 1
poll 1
clenched 1
investigate 1
##use 1
thereby 1
quantum 1
spine 1
cdp 1
humor 1
kills 1
administered 1
semifinals 1
##du 1
encountered 1
ignore 1
##bu 1
commentary 1
##maker 1
bother 1
roosevelt 1
140 1
plains 1
halfway 1
flowing 1
cultures 1
crack 1
imprisoned 1
neighboring 1
airline 1
##ses 1
##view 1
##mate 1
##ec 1
gather 1
wolves 1
marathon 1
transformed 1
##ill 1
cruise 1
organisations 1
carol 1
punch 1
exhibitions 1
numbered 1
alarm 1
ratings 1
daddy 1
silently 1
##stein 1
queens 1
colours 1
impression 1
guidance 1
liu 1
tactical 1
##rat 1
marshal 1
della 1
arrow 1
##ings 1
rested 1
feared 1
tender 1
owns 1
bitter 1
advisor 1
escort 1
##ides 1
spare 1
farms 1
grants 1
##ene 1
dragons 1
encourage 1
colleagues 1
cameras 1
##und 1
sucked 1
pile 1
spirits 1
prague 1
statements 1
suspension 1
landmark 1
fence 1
torture 1
recreation 1
bags 1
permanently 1
survivors 1
pond 1
spy 1
predecessor 1
bombing 1
coup 1
##og 1
protecting 1
transformation 1
glow 1
##lands 1
##book 1
dug 1
priests 1
andrea 1
feat 1
barn 1
jumping 1
##chen 1
##ologist 1
##con 1
casualties 1
stern 1
auckland 1
pipe 1
serie 1
revealing 1
ba 1
##bel 1
trevor 1
mercy 1
spectrum 1
yang 1
consist 1
governing 1
collaborated 1
possessed 1
epic 1
comprises 1
blew 1
shane 1
##ack 1
lopez 1
honored 1
magical 1
sacrifice 1
judgment 1
perceived 1
hammer 1
mtv 1
baronet 1
tune 1
das 1
missionary 1
sheets 1
350 1
neutral 1
oral 1
threatening 1
attractive 1
shade 1
aims 1
seminary 1
##master 1
estates 1
1856 1
michel 1
wounds 1
refugees 1
manufacturers 1
##nic 1
mercury 1
syndrome 1
porter 1
##iya 1
##din 1
hamburg 1
identification 1
upstairs 1
purse 1
widened 1
pause 1
cared 1
breathed 1
affiliate 1
santiago 1
prevented 1
celtic 1
fisher 1
125 1
recruited 1
byzantine 1
reconstruction 1
farther 1
##mp 1
diet 1
sake 1
au 1
spite 1
sensation 1
##ert 1
blank 1
separation 1
105 1
##hon 1
vladimir 1
armies 1
anime 1
##lie 1
accommodate 1
orbit 1
cult 1
sofia 1
archive 1
##ify 1
##box 1
founders 1
sustained 1
disorder 1
honours 1
northeastern 1
mia 1
crops 1
violet 1
threats 1
blanket 1
fires 1
canton 1
followers 1
southwestern 1
prototype 1
voyage 1
assignment 1
altered 1
moderate 1
protocol 1
pistol 1
##eo 1
questioned 1
brass 1
lifting 1
1852 1
math 1
authored 1
##ual 1
doug 1
dimensional 1
dynamic 1
##san 1
1851 1
pronounced 1
grateful 1
quest 1
uncomfortable 1
boom 1
presidency 1
stevens 1
relating 1
politicians 1
chen 1
barrier 1
quinn 1
diana 1
mosque 1
tribal 1
cheese 1
palmer 1
portions 1
sometime 1
chester 1
treasure 1
wu 1
bend 1
download 1
millions 1
reforms 1
registration 1
##osa 1
consequently 1
monitoring 1
ate 1
preliminary 1
brandon 1
invented 1
ps 1
eaten 1
exterior 1
intervention 1
ports 1
documented 1
log 1
displays 1
lecture 1
sally 1
favourite 1
##itz 1
vermont 1
lo 1
invisible 1
isle 1
breed 1
##ator 1
journalists 1
relay 1
speaks 1
backward 1
explore 1
midfielder 1
actively 1
stefan 1
procedures 1
cannon 1
blond 1
kenneth 1
centered 1
servants 1
chains 1
libraries 1
malcolm 1
essex 1
henri 1
slavery 1
##hal 1
facts 1
fairy 1
coached 1
cassie 1
cats 1
washed 1
cop 1
##fi 1
announcement 1
item 1
2000s 1
vinyl 1
activated 1
marco 1
frontier 1
growled 1
curriculum 1
##das 1
loyal 1
accomplished 1
leslie 1
ritual 1
kenny 1
##00 1
vii 1
napoleon 1
hollow 1
hybrid 1
jungle 1
stationed 1
friedrich 1
counted 1
##ulated 1
platinum 1
theatrical 1
seated 1
col 1
rubber 1
glen 1
1840 1
diversity 1
healing 1
extends 1
id 1
provisions 1
administrator 1
columbus 1
##oe 1
tributary 1
te 1
assured 1
org 1
##uous 1
prestigious 1
examined 1
lectures 1
grammy 1
ronald 1
associations 1
bailey 1
allan 1
essays 1
flute 1
believing 1
consultant 1
proceedings 1
travelling 1
1853 1
kit 1
kerala 1
yugoslavia 1
buddy 1
methodist 1
##ith 1
burial 1
centres 1
batman 1
##nda 1
discontinued 1
bo 1
dock 1
stockholm 1
lungs 1
severely 1
##nk 1
citing 1
manga 1
##ugh 1
steal 1
mumbai 1
iraqi 1
robot 1
celebrity 1
bride 1
broadcasts 1
abolished 1
pot 1
joel 1
overhead 1
franz 1
packed 1
reconnaissance 1
johann 1
acknowledged 1
introduce 1
handled 1
doctorate 1
developments 1
drinks 1
alley 1
palestine 1
##nis 1
##aki 1
proceeded 1
recover 1
bradley 1
grain 1
patch 1
afford 1
infection 1
nationalist 1
legendary 1
##ath 1
interchange 1
virtually 1
gen 1
gravity 1
exploration 1
amber 1
vital 1
wishes 1
powell 1
doctrine 1
elbow 1
screenplay 1
##bird 1
contribute 1
indonesian 1
pet 1
creates 1
##com 1
enzyme 1
kylie 1
discipline 1
drops 1
manila 1
hunger 1
##ien 1
layers 1
suffer 1
fever 1
bits 1
monica 1
keyboard 1
manages 1
##hood 1
searched 1
appeals 1
##bad 1
testament 1
grande 1
reid 1
##war 1
beliefs 1
congo 1
##ification 1
##dia 1
si 1
requiring 1
##via 1
casey 1
1849 1
regret 1
streak 1
rape 1
depends 1
syrian 1
sprint 1
pound 1
tourists 1
upcoming 1
pub 1
##xi 1
tense 1
##els 1
practiced 1
echo 1
nationwide 1
guild 1
motorcycle 1
liz 1
##zar 1
chiefs 1
desired 1
elena 1
bye 1
precious 1
absorbed 1
relatives 1
booth 1
pianist 1
##mal 1
citizenship 1
exhausted 1
wilhelm 1
##ceae 1
##hed 1
noting 1
quarterback 1
urge 1
hectares 1
##gue 1
ace 1
holly 1
##tal 1
blonde 1
davies 1
parked 1
sustainable 1
stepping 1
twentieth 1
airfield 1
galaxy 1
nest 1
chip 1
##nell 1
tan 1
shaft 1
paulo 1
requirement 1
##zy 1
paradise 1
tobacco 1
trans 1
renewed 1
vietnamese 1
##cker 1
##ju 1
suggesting 1
catching 1
holmes 1
enjoying 1
md 1
trips 1
colt 1
holder 1
butterfly 1
nerve 1
reformed 1
cherry 1
bowling 1
trailer 1
carriage 1
goodbye 1
appreciate 1
toy 1
joshua 1
interactive 1
enabled 1
involve 1
##kan 1
collar 1
determination 1
bunch 1
facebook 1
recall 1
shorts 1
superintendent 1
episcopal 1
frustration 1
giovanni 1
nineteenth 1
laser 1
privately 1
array 1
circulation 1
##ovic 1
armstrong 1
deals 1
painful 1
permit 1
discrimination 1
##wi 1
aires 1
retiring 1
cottage 1
ni 1
##sta 1
horizon 1
ellen 1
jamaica 1
ripped 1
fernando 1
chapters 1
playstation 1
patron 1
lecturer 1
navigation 1
behaviour 1
genes 1
georgian 1
export 1
solomon 1
rivals 1
swift 1
seventeen 1
rodriguez 1
princeton 1
independently 1
sox 1
1847 1
arguing 1
entity 1
casting 1
hank 1
criteria 1
oakland 1
geographic 1
milwaukee 1
reflection 1
expanding 1
conquest 1
dubbed 1
##tv 1
halt 1
brave 1
brunswick 1
doi 1
arched 1
curtis 1
divorced 1
predominantly 1
somerset 1
streams 1
ugly 1
zoo 1
horrible 1
curved 1
buenos 1
fierce 1
dictionary 1
vector 1
theological 1
unions 1
handful 1
stability 1
chan 1
punjab 1
segments 1
##lly 1
altar 1
ignoring 1
gesture 1
monsters 1
pastor 1
##stone 1
thighs 1
unexpected 1
operators 1
abruptly 1
coin 1
compiled 1
associates 1
improving 1
migration 1
pin 1
##ose 1
compact 1
collegiate 1
reserved 1
##urs 1
quarterfinals 1
roster 1
restore 1
assembled 1
hurry 1
oval 1
##cies 1
1846 1
flags 1
martha 1
##del 1
victories 1
sharply 1
##rated 1
argues 1
deadly 1
neo 1
drawings 1
symbols 1
performer 1
##iel 1
griffin 1
restrictions 1
editing 1
andrews 1
java 1
journals 1
arabia 1
compositions 1
dee 1
pierce 1
removing 1
hindi 1
casino 1
runway 1
civilians 1
minds 1
nasa 1
hotels 1
##zation 1
refuge 1
rent 1
retain 1
potentially 1
conferences 1
suburban 1
conducting 1
##tto 1
##tions 1
##tle 1
descended 1
massacre 1
##cal 1
ammunition 1
terrain 1
fork 1
souls 1
counts 1
chelsea 1
durham 1
drives 1
cab 1
##bank 1
perth 1
realizing 1
palestinian 1
finn 1
simpson 1
##dal 1
betty 1
##ule 1
moreover 1
particles 1
cardinals 1
tent 1
evaluation 1
extraordinary 1
##oid 1
inscription 1
##works 1
wednesday 1
chloe 1
maintains 1
panels 1
ashley 1
trucks 1
##nation 1
cluster 1
sunlight 1
strikes 1
zhang 1
##wing 1
dialect 1
canon 1
##ap 1
tucked 1
##ws 1
collecting 1
##mas 1
##can 1
##sville 1
maker 1
quoted 1
evan 1
franco 1
aria 1
buying 1
cleaning 1
eva 1
closet 1
provision 1
apollo 1
clinic 1
rat 1
##ez 1
necessarily 1
ac 1
##gle 1
##ising 1
venues 1
flipped 1
cent 1
spreading 1
trustees 1
checking 1
authorized 1
##sco 1
disappointed 1
##ado 1
notion 1
duration 1
trumpet 1
hesitated 1
topped 1
brussels 1
rolls 1
theoretical 1
hint 1
define 1
aggressive 1
repeat 1
wash 1
peaceful 1
optical 1
width 1
allegedly 1
mcdonald 1
strict 1
copyright 1
##illa 1
investors 1
mar 1
jam 1
witnesses 1
sounding 1
miranda 1
michelle 1
privacy 1
hugo 1
harmony 1
##pp 1
valid 1
lynn 1
glared 1
nina 1
102 1
headquartered 1
diving 1
boarding 1
gibson 1
##ncy 1
albanian 1
marsh 1
routine 1
dealt 1
enhanced 1
er 1
intelligent 1
substance 1
targeted 1
enlisted 1
discovers 1
spinning 1
observations 1
pissed 1
smoking 1
rebecca 1
capitol 1
visa 1
varied 1
costume 1
seemingly 1
indies 1
compensation 1
surgeon 1
thursday 1
arsenal 1
westminster 1
suburbs 1
rid 1
anglican 1
##ridge 1
knots 1
foods 1
alumni 1
lighter 1
fraser 1
whoever 1
portal 1
scandal 1
##ray 1
gavin 1
advised 1
instructor 1
flooding 1
terrorist 1
##ale 1
teenage 1
interim 1
senses 1
duck 1
teen 1
thesis 1
abby 1
eager 1
overcome 1
##ile 1
newport 1
glenn 1
rises 1
shame 1
##cc 1
prompted 1
priority 1
forgot 1
bomber 1
nicolas 1
protective 1
360 1
cartoon 1
katherine 1
breeze 1
lonely 1
trusted 1
henderson 1
richardson 1
relax 1
banner 1
candy 1
palms 1
remarkable 1
##rio 1
legends 1
cricketer 1
essay 1
ordained 1
edmund 1
rifles 1
trigger 1
##uri 1
##away 1
sail 1
alert 1
1830 1
audiences 1
penn 1
sussex 1
siblings 1
pursued 1
indianapolis 1
resist 1
rosa 1
consequence 1
succeed 1
avoided 1
1845 1
##ulation 1
inland 1
##tie 1
##nna 1
counsel 1
profession 1
chronicle 1
hurried 1
##una 1
eyebrow 1
eventual 1
bleeding 1
innovative 1
cure 1
##dom 1
committees 1
accounting 1
con 1
scope 1
hardy 1
heather 1
tenor 1
gut 1
herald 1
codes 1
tore 1
scales 1
wagon 1
##oo 1
luxury 1
tin 1
prefer 1
fountain 1
triangle 1
bonds 1
darling 1
convoy 1
dried 1
traced 1
beings 1
troy 1
accidentally 1
slam 1
findings 1
smelled 1
joey 1
lawyers 1
outcome 1
steep 1
bosnia 1
configuration 1
shifting 1
toll 1
brook 1
performers 1
lobby 1
philosophical 1
construct 1
shrine 1
aggregate 1
boot 1
cox 1
phenomenon 1
savage 1
insane 1
solely 1
reynolds 1
lifestyle 1
##ima 1
nationally 1
holdings 1
consideration 1
enable 1
edgar 1
mo 1
mama 1
##tein 1
fights 1
relegation 1
chances 1
atomic 1
hub 1
conjunction 1
awkward 1
reactions 1
currency 1
finale 1
kumar 1
underwent 1
steering 1
elaborate 1
gifts 1
comprising 1
melissa 1
veins 1
reasonable 1
sunshine 1
chi 1
solve 1
trails 1
inhabited 1
elimination 1
ethics 1
huh 1
ana 1
molly 1
consent 1
apartments 1
layout 1
marines 1
##ces 1
hunters 1
bulk 1
##oma 1
hometown 1
##wall 1
##mont 1
cracked 1
reads 1
neighbouring 1
withdrawn 1
admission 1
wingspan 1
damned 1
anthology 1
lancashire 1
brands 1
batting 1
forgive 1
cuban 1
awful 1
##lyn 1
104 1
dimensions 1
imagination 1
##ade 1
dante 1
##ship 1
tracking 1
desperately 1
goalkeeper 1
##yne 1
groaned 1
workshops 1
confident 1
burton 1
gerald 1
milton 1
circus 1
uncertain 1
slope 1
copenhagen 1
sophia 1
fog 1
philosopher 1
portraits 1
accent 1
cycling 1
varying 1
gripped 1
larvae 1
garrett 1
specified 1
scotia 1
mature 1
luther 1
kurt 1
rap 1
##kes 1
aerial 1
750 1
ferdinand 1
heated 1
es 1
transported 1
##shan 1
safely 1
nonetheless 1
##orn 1
##gal 1
motors 1
demanding 1
##sburg 1
startled 1
##brook 1
ally 1
generate 1
caps 1
ghana 1
stained 1
demo 1
mentions 1
beds 1
ap 1
afterward 1
diary 1
##bling 1
utility 1
##iro 1
richards 1
1837 1
conspiracy 1
conscious 1
shining 1
footsteps 1
observer 1
cyprus 1
urged 1
loyalty 1
developer 1
probability 1
olive 1
upgraded 1
gym 1
miracle 1
insects 1
graves 1
1844 1
ourselves 1
hydrogen 1
amazon 1
katie 1
tickets 1
poets 1
##pm 1
planes 1
##pan 1
prevention 1
witnessed 1
dense 1
jin 1
randy 1
tang 1
warehouse 1
monroe 1
bang 1
archived 1
elderly 1
investigations 1
alec 1
granite 1
mineral 1
conflicts 1
controlling 1
aboriginal 1
carlo 1
##zu 1
mechanics 1
stan 1
stark 1
rhode 1
skirt 1
est 1
##berry 1
bombs 1
respected 1
##horn 1
imposed 1
limestone 1
deny 1
nominee 1
memphis 1
grabbing 1
disabled 1
##als 1
amusement 1
aa 1
frankfurt 1
corn 1
referendum 1
varies 1
slowed 1
disk 1
firms 1
unconscious 1
incredible 1
clue 1
sue 1
##zhou 1
twist 1
##cio 1
joins 1
idaho 1
chad 1
developers 1
computing 1
destroyer 1
103 1
mortal 1
tucker 1
kingston 1
choices 1
yu 1
carson 1
1800 1
os 1
whitney 1
geneva 1
pretend 1
dimension 1
staged 1
plateau 1
maya 1
##une 1
freestyle 1
##bc 1
rovers 1
hiv 1
##ids 1
tristan 1
classroom 1
prospect 1
##hus 1
honestly 1
diploma 1
lied 1
thermal 1
auxiliary 1
feast 1
unlikely 1
iata 1
##tel 1
morocco 1
pounding 1
treasury 1
lithuania 1
considerably 1
1841 1
dish 1
1812 1
geological 1
matching 1
stumbled 1
destroying 1
marched 1
brien 1
advances 1
cake 1
nicole 1
belle 1
settling 1
measuring 1
directing 1
##mie 1
tuesday 1
bassist 1
capabilities 1
stunned 1
fraud 1
torpedo 1
##list 1
##phone 1
anton 1
wisdom 1
surveillance 1
ruined 1
##ulate 1
lawsuit 1
healthcare 1
theorem 1
halls 1
trend 1
aka 1
horizontal 1
dozens 1
acquire 1
lasting 1
swim 1
hawk 1
gorgeous 1
fees 1
vicinity 1
decrease 1
adoption 1
tactics 1
##ography 1
pakistani 1
##ole 1
draws 1
##hall 1
willie 1
burke 1
heath 1
algorithm 1
integral 1
powder 1
elliott 1
brigadier 1
jackie 1
tate 1
varieties 1
darker 1
##cho 1
lately 1
cigarette 1
specimens 1
adds 1
##ree 1
##ensis 1
##inger 1
exploded 1
finalist 1
cia 1
murders 1
wilderness 1
arguments 1
nicknamed 1
acceptance 1
onwards 1
manufacture 1
robertson 1
jets 1
tampa 1
enterprises 1
blog 1
loudly 1
composers 1
nominations 1
1838 1
ai 1
malta 1
inquiry 1
automobile 1
hosting 1
viii 1
rays 1
tilted 1
grief 1
museums 1
strategies 1
furious 1
euro 1
equality 1
cohen 1
poison 1
surrey 1
wireless 1
governed 1
ridiculous 1
moses 1
##esh 1
##room 1
vanished 1
##ito 1
barnes 1
attract 1
morrison 1
istanbul 1
##iness 1
absent 1
rotation 1
petition 1
janet 1
##logical 1
satisfaction 1
custody 1
deliberately 1
observatory 1
comedian 1
surfaces 1
pinyin 1
novelist 1
strictly 1
canterbury 1
oslo 1
monks 1
embrace 1
ibm 1
jealous 1
photograph 1
continent 1
dorothy 1
marina 1
doc 1
excess 1
holden 1
allegations 1
explaining 1
stack 1
avoiding 1
lance 1
storyline 1
majesty 1
poorly 1
spike 1
dos 1
bradford 1
raven 1
travis 1
classics 1
proven 1
voltage 1
pillow 1
fists 1
butt 1
1842 1
interpreted 1
##car 1
1839 1
gage 1
telegraph 1
lens 1
promising 1
expelled 1
casual 1
collector 1
zones 1
##min 1
silly 1
nintendo 1
##kh 1
##bra 1
downstairs 1
chef 1
suspicious 1
afl 1
flies 1
vacant 1
uganda 1
pregnancy 1
condemned 1
lutheran 1
estimates 1
cheap 1
decree 1
saxon 1
proximity 1
stripped 1
idiot 1
deposits 1
contrary 1
presenter 1
magnus 1
glacier 1
im 1
offense 1
edwin 1
##ori 1
upright 1
##long 1
bolt 1
##ois 1
toss 1
geographical 1
##izes 1
environments 1
delicate 1
marking 1
abstract 1
xavier 1
nails 1
windsor 1
plantation 1
occurring 1
equity 1
saskatchewan 1
fears 1
drifted 1
sequences 1
vegetation 1
revolt 1
##stic 1
1843 1
sooner 1
fusion 1
opposing 1
nato 1
skating 1
1836 1
secretly 1
ruin 1
lease 1
##oc 1
edit 1
##nne 1
flora 1
anxiety 1
ruby 1
##ological 1
##mia 1
tel 1
bout 1
taxi 1
emmy 1
frost 1
rainbow 1
compounds 1
foundations 1
rainfall 1
assassination 1
nightmare 1
dominican 1
##win 1
achievements 1
deserve 1
orlando 1
intact 1
armenia 1
##nte 1
calgary 1
valentine 1
106 1
marion 1
proclaimed 1
theodore 1
bells 1
courtyard 1
thigh 1
gonzalez 1
console 1
troop 1
minimal 1
monte 1
everyday 1
##ence 1
##if 1
supporter 1
terrorism 1
buck 1
openly 1
presbyterian 1
activists 1
carpet 1
##iers 1
rubbing 1
uprising 1
##yi 1
cute 1
conceived 1
legally 1
##cht 1
millennium 1
cello 1
velocity 1
ji 1
rescued 1
cardiff 1
1835 1
rex 1
concentrate 1
senators 1
beard 1
rendered 1
glowing 1
battalions 1
scouts 1
competitors 1
sculptor 1
catalogue 1
arctic 1
ion 1
raja 1
bicycle 1
wow 1
glancing 1
lawn 1
##woman 1
gentleman 1
lighthouse 1
publish 1
predicted 1
calculated 1
##val 1
variants 1
##gne 1
strain 1
##ui 1
winston 1
deceased 1
##nus 1
touchdowns 1
brady 1
caleb 1
sinking 1
echoed 1
crush 1
hon 1
blessed 1
protagonist 1
hayes 1
endangered 1
magnitude 1
editors 1
##tine 1
estimate 1
responsibilities 1
##mel 1
backup 1
laying 1
consumed 1
sealed 1
zurich 1
lovers 1
frustrated 1
##eau 1
ahmed 1
kicking 1
mit 1
treasurer 1
1832 1
biblical 1
refuse 1
terrified 1
pump 1
agrees 1
genuine 1
imprisonment 1
refuses 1
plymouth 1
##hen 1
lou 1
##nen 1
tara 1
trembling 1
antarctic 1
ton 1
learns 1
##tas 1
crap 1
crucial 1
faction 1
atop 1
##borough 1
wrap 1
lancaster 1
odds 1
hopkins 1
erik 1
lyon 1
##eon 1
bros 1
##ode 1
snap 1
locality 1
tips 1
empress 1
crowned 1
cal 1
acclaimed 1
chuckled 1
##ory 1
clara 1
sends 1
mild 1
towel 1
##fl 1
##day 1
##а 1
wishing 1
assuming 1
interviewed 1
##bal 1
##die 1
interactions 1
eden 1
cups 1
helena 1
##lf 1
indie 1
beck 1
##fire 1
batteries 1
filipino 1
wizard 1
parted 1
##lam 1
traces 1
##born 1
rows 1
idol 1
albany 1
delegates 1
##ees 1
##sar 1
discussions 1
##ex 1
notre 1
instructed 1
belgrade 1
highways 1
suggestion 1
lauren 1
possess 1
orientation 1
alexandria 1
abdul 1
beats 1
salary 1
reunion 1
ludwig 1
alright 1
wagner 1
intimate 1
pockets 1
slovenia 1
hugged 1
brighton 1
merchants 1
cruel 1
stole 1
trek 1
slopes 1
repairs 1
enrollment 1
politically 1
underlying 1
promotional 1
counting 1
boeing 1
##bb 1
isabella 1
naming 1
##и 1
keen 1
bacteria 1
listing 1
separately 1
belfast 1
ussr 1
450 1
lithuanian 1
anybody 1
ribs 1
sphere 1
martinez 1
cock 1
embarrassed 1
proposals 1
fragments 1
nationals 1
##fs 1
##wski 1
premises 1
fin 1
1500 1
alpine 1
matched 1
freely 1
bounded 1
jace 1
sleeve 1
##af 1
gaming 1
pier 1
populated 1
evident 1
##like 1
frances 1
flooded 1
##dle 1
frightened 1
pour 1
trainer 1
framed 1
visitor 1
challenging 1
pig 1
wickets 1
##fold 1
infected 1
email 1
##pes 1
arose 1
##aw 1
reward 1
ecuador 1
oblast 1
vale 1
ch 1
shuttle 1
##usa 1
bach 1
rankings 1
forbidden 1
cornwall 1
accordance 1
salem 1
consumers 1
bruno 1
fantastic 1
toes 1
machinery 1
resolved 1
julius 1
remembering 1
propaganda 1
iceland 1
bombardment 1
tide 1
contacts 1
wives 1
##rah 1
concerto 1
macdonald 1
albania 1
implement 1
daisy 1
tapped 1
sudan 1
helmet 1
angela 1
mistress 1
##lic 1
crop 1
sunk 1
finest 1
##craft 1
hostile 1
##ute 1
##tsu 1
boxer 1
fr 1
paths 1
adjusted 1
habit 1
ballot 1
supervision 1
soprano 1
##zen 1
bullets 1
wicked 1
sunset 1
regiments 1
disappear 1
lamp 1
performs 1
app 1
##gia 1
##oa 1
rabbit 1
digging 1
incidents 1
entries 1
##cion 1
dishes 1
##oi 1
introducing 1
##ati 1
##fied 1
freshman 1
slot 1
jill 1
tackles 1
baroque 1
backs 1
##iest 1
lone 1
sponsor 1
destiny 1
altogether 1
convert 1
##aro 1
consensus 1
shapes 1
demonstration 1
basically 1
feminist 1
auction 1
artifacts 1
##bing 1
strongest 1
twitter 1
halifax 1
2019 1
allmusic 1
mighty 1
smallest 1
precise 1
alexandra 1
viola 1
##los 1
##ille 1
manuscripts 1
##illo 1
dancers 1
ari 1
managers 1
monuments 1
blades 1
barracks 1
springfield 1
maiden 1
consolidated 1
electron 1
##end 1
berry 1
airing 1
wheat 1
nobel 1
inclusion 1
blair 1
payments 1
geography 1
bee 1
cc 1
eleanor 1
react 1
##hurst 1
afc 1
manitoba 1
##yu 1
su 1
lineup 1
fitness 1
recreational 1
investments 1
airborne 1
disappointment 1
##dis 1
edmonton 1
viewing 1
##row 1
renovation 1
##cast 1
infant 1
bankruptcy 1
roses 1
aftermath 1
pavilion 1
##yer 1
carpenter 1
withdrawal 1
ladder 1
##hy 1
discussing 1
popped 1
reliable 1
agreements 1
rochester 1
##abad 1
curves 1
bombers 1
220 1
rao 1
reverend 1
decreased 1
choosing 1
107 1
stiff 1
consulting 1
naples 1
crawford 1
tracy 1
ka 1
ribbon 1
cops 1
##lee 1
crushed 1
deciding 1
unified 1
teenager 1
accepting 1
flagship 1
explorer 1
poles 1
sanchez 1
inspection 1
revived 1
skilled 1
induced 1
exchanged 1
flee 1
locals 1
tragedy 1
swallow 1
loading 1
hanna 1
demonstrate 1
##ela 1
salvador 1
flown 1
contestants 1
civilization 1
##ines 1
wanna 1
rhodes 1
fletcher 1
hector 1
knocking 1
considers 1
##ough 1
nash 1
mechanisms 1
sensed 1
mentally 1
walt 1
unclear 1
##eus 1
renovated 1
madame 1
##cks 1
crews 1
governmental 1
##hin 1
undertaken 1
monkey 1
##ben 1
##ato 1
fatal 1
armored 1
copa 1
caves 1
governance 1
grasp 1
perception 1
certification 1
froze 1
damp 1
tugged 1
wyoming 1
##rg 1
##ero 1
newman 1
##lor 1
nerves 1
curiosity 1
graph 1
115 1
##ami 1
withdraw 1
tunnels 1
dull 1
meredith 1
moss 1
exhibits 1
neighbors 1
communicate 1
accuracy 1
explored 1
raiders 1
republicans 1
secular 1
kat 1
superman 1
penny 1
criticised 1
##tch 1
freed 1
update 1
conviction 1
wade 1
ham 1
likewise 1
delegation 1
gotta 1
doll 1
promises 1
technological 1
myth 1
nationality 1
resolve 1
convent 1
##mark 1
sharon 1
dig 1
sip 1
coordinator 1
entrepreneur 1
fold 1
##dine 1
capability 1
councillor 1
synonym 1
blown 1
swan 1
cursed 1
1815 1
jonas 1
haired 1
sofa 1
canvas 1
keeper 1
rivalry 1
##hart 1
rapper 1
speedway 1
swords 1
postal 1
maxwell 1
estonia 1
potter 1
recurring 1
##nn 1
##ave 1
errors 1
##oni 1
cognitive 1
1834 1
##² 1
claws 1
nadu 1
roberto 1
bce 1
wrestler 1
ellie 1
##ations 1
infinite 1
ink 1
##tia 1
presumably 1
finite 1
staircase 1
108 1
noel 1
patricia 1
nacional 1
##cation 1
chill 1
eternal 1
tu 1
preventing 1
prussia 1
fossil 1
limbs 1
##logist 1
ernst 1
frog 1
perez 1
rene 1
##ace 1
pizza 1
prussian 1
##ios 1
##vy 1
molecules 1
regulatory 1
answering 1
opinions 1
sworn 1
lengths 1
supposedly 1
hypothesis 1
upward 1
habitats 1
seating 1
ancestors 1
drank 1
yield 1
hd 1
synthesis 1
researcher 1
modest 1
##var 1
mothers 1
peered 1
voluntary 1
homeland 1
##the 1
acclaim 1
##igan 1
static 1
valve 1
luxembourg 1
alto 1
carroll 1
fe 1
receptor 1
norton 1
ambulance 1
##tian 1
johnston 1
catholics 1
depicting 1
jointly 1
elephant 1
gloria 1
mentor 1
badge 1
ahmad 1
distinguish 1
remarked 1
councils 1
precisely 1
allison 1
advancing 1
detection 1
crowded 1
##10 1
cooperative 1
ankle 1
mercedes 1
dagger 1
surrendered 1
pollution 1
commit 1
subway 1
jeffrey 1
lesson 1
sculptures 1
provider 1
##fication 1
membrane 1
timothy 1
rectangular 1
fiscal 1
heating 1
teammate 1
basket 1
particle 1
anonymous 1
deployment 1
##ple 1
missiles 1
courthouse 1
proportion 1
shoe 1
sec 1
##ller 1
complaints 1
forbes 1
blacks 1
abandon 1
remind 1
sizes 1
overwhelming 1
autobiography 1
natalie 1
##awa 1
risks 1
contestant 1
countryside 1
babies 1
scorer 1
invaded 1
enclosed 1
proceed 1
hurling 1
disorders 1
##cu 1
reflecting 1
continuously 1
cruiser 1
graduates 1
freeway 1
investigated 1
ore 1
deserved 1
maid 1
blocking 1
phillip 1
jorge 1
shakes 1
dove 1
mann 1
variables 1
lacked 1
burden 1
accompanying 1
que 1
consistently 1
organizing 1
provisional 1
complained 1
endless 1
##rm 1
tubes 1
juice 1
georges 1
krishna 1
mick 1
labels 1
thriller 1
##uch 1
laps 1
arcade 1
sage 1
snail 1
##table 1
shannon 1
fi 1
laurence 1
seoul 1
vacation 1
presenting 1
hire 1
churchill 1
surprisingly 1
prohibited 1
savannah 1
technically 1
##oli 1
170 1
##lessly 1
testimony 1
suited 1
speeds 1
toys 1
romans 1
mlb 1
flowering 1
measurement 1
talented 1
kay 1
settings 1
charleston 1
expectations 1
shattered 1
achieving 1
triumph 1
ceremonies 1
portsmouth 1
lanes 1
mandatory 1
loser 1
stretching 1
cologne 1
realizes 1
seventy 1
cornell 1
careers 1
webb 1
##ulating 1
americas 1
budapest 1
ava 1
suspicion 1
##ison 1
yo 1
conrad 1
##hai 1
sterling 1
jessie 1
rector 1
##az 1
1831 1
transform 1
organize 1
loans 1
christine 1
volcanic 1
warrant 1
slender 1
summers 1
subfamily 1
newer 1
danced 1
dynamics 1
rhine 1
proceeds 1
heinrich 1
gastropod 1
commands 1
sings 1
facilitate 1
easter 1
ra 1
positioned 1
responses 1
expense 1
fruits 1
yanked 1
imported 1
25th 1
velvet 1
vic 1
primitive 1
tribune 1
baldwin 1
neighbourhood 1
donna 1
rip 1
hay 1
pr 1
##uro 1
1814 1
espn 1
welcomed 1
##aria 1
qualifier 1
glare 1
highland 1
timing 1
##cted 1
shells 1
eased 1
geometry 1
louder 1
exciting 1
slovakia 1
##sion 1
##iz 1
##lot 1
savings 1
prairie 1
##ques 1
marching 1
rafael 1
tonnes 1
##lled 1
curtain 1
preceding 1
shy 1
heal 1
greene 1
worthy 1
##pot 1
detachment 1
bury 1
sherman 1
##eck 1
reinforced 1
seeks 1
bottles 1
contracted 1
duchess 1
outfit 1
walsh 1
##sc 1
mickey 1
##ase 1
geoffrey 1
archer 1
squeeze 1
dawson 1
eliminate 1
invention 1
##enberg 1
neal 1
##eth 1
stance 1
dealer 1
coral 1
maple 1
retire 1
polo 1
simplified 1
##ht 1
1833 1
hid 1
watts 1
backwards 1
jules 1
##oke 1
genesis 1
mt 1
frames 1
rebounds 1
burma 1
woodland 1
moist 1
santos 1
whispers 1
drained 1
subspecies 1
##aa 1
streaming 1
ulster 1
burnt 1
correspondence 1
maternal 1
gerard 1
denis 1
stealing 1
##load 1
genius 1
duchy 1
##oria 1
inaugurated 1
momentum 1
suits 1
placement 1
sovereign 1
clause 1
thames 1
##hara 1
confederation 1
reservation 1
sketch 1
yankees 1
lets 1
rotten 1
charm 1
hal 1
verses 1
ultra 1
commercially 1
dot 1
salon 1
citation 1
adopt 1
winnipeg 1
mist 1
allocated 1
cairo 1
##boy 1
jenkins 1
interference 1
objectives 1
##wind 1
1820 1
portfolio 1
armoured 1
sectors 1
##eh 1
initiatives 1
##world 1
integrity 1
exercises 1
robe 1
tap 1
ab 1
gazed 1
##tones 1
distracted 1
rulers 1
111 1
favorable 1
jerome 1
tended 1
cart 1
factories 1
##eri 1
diplomat 1
valued 1
gravel 1
charitable 1
##try 1
calvin 1
exploring 1
chang 1
shepherd 1
terrace 1
pdf 1
pupil 1
##ural 1
reflects 1
ups 1
##rch 1
governors 1
shelf 1
depths 1
##nberg 1
trailed 1
crest 1
tackle 1
##nian 1
##ats 1
hatred 1
##kai 1
clare 1
makers 1
ethiopia 1
longtime 1
detected 1
embedded 1
lacking 1
slapped 1
rely 1
thomson 1
anticipation 1
iso 1
morton 1
successive 1
agnes 1
screenwriter 1
straightened 1
philippe 1
playwright 1
haunted 1
licence 1
iris 1
intentions 1
sutton 1
112 1
logical 1
correctly 1
##weight 1
branded 1
licked 1
tipped 1
silva 1
ricky 1
narrator 1
requests 1
##ents 1
greeted 1
supernatural 1
cow 1
##wald 1
lung 1
refusing 1
employer 1
strait 1
gaelic 1
liner 1
##piece 1
zoe 1
sabha 1
##mba 1
driveway 1
harvest 1
prints 1
bates 1
reluctantly 1
threshold 1
algebra 1
ira 1
wherever 1
coupled 1
240 1
assumption 1
picks 1
##air 1
designers 1
raids 1
gentlemen 1
##ean 1
roller 1
blowing 1
leipzig 1
locks 1
screw 1
dressing 1
strand 1
##lings 1
scar 1
dwarf 1
depicts 1
##nu 1
nods 1
##mine 1
differ 1
boris 1
##eur 1
yuan 1
flip 1
##gie 1
mob 1
invested 1
questioning 1
applying 1
##ture 1
shout 1
##sel 1
gameplay 1
blamed 1
illustrations 1
bothered 1
weakness 1
rehabilitation 1
##of 1
##zes 1
envelope 1
rumors 1
miners 1
leicester 1
subtle 1
kerry 1
##ico 1
ferguson 1
##fu 1
premiership 1
ne 1
##cat 1
bengali 1
prof 1
catches 1
remnants 1
dana 1
##rily 1
shouting 1
presidents 1
baltic 1
ought 1
ghosts 1
dances 1
sailors 1
shirley 1
fancy 1
dominic 1
##bie 1
madonna 1
##rick 1
bark 1
buttons 1
gymnasium 1
ashes 1
liver 1
toby 1
oath 1
providence 1
doyle 1
evangelical 1
nixon 1
cement 1
carnegie 1
embarked 1
hatch 1
surroundings 1
guarantee 1
needing 1
pirate 1
essence 1
##bee 1
filter 1
crane 1
hammond 1
projected 1
immune 1
percy 1
twelfth 1
##ult 1
regent 1
doctoral 1
damon 1
mikhail 1
##ichi 1
lu 1
critically 1
elect 1
realised 1
abortion 1
acute 1
screening 1
mythology 1
steadily 1
##fc 1
frown 1
nottingham 1
kirk 1
wa 1
minneapolis 1
##rra 1
module 1
algeria 1
mc 1
nautical 1
encounters 1
surprising 1
statues 1
availability 1
shirts 1
pie 1
alma 1
brows 1
munster 1
mack 1
soup 1
crater 1
tornado 1
sanskrit 1
cedar 1
explosive 1
bordered 1
dixon 1
planets 1
stamp 1
exam 1
happily 1
##bble 1
carriers 1
kidnapped 1
##vis 1
accommodation 1
emigrated 1
##met 1
knockout 1
correspondent 1
violation 1
profits 1
peaks 1
lang 1
specimen 1
agenda 1
ancestry 1
pottery 1
spelling 1
equations 1
obtaining 1
ki 1
linking 1
1825 1
debris 1
asylum 1
##20 1
buddhism 1
teddy 1
##ants 1
gazette 1
##nger 1
##sse 1
dental 1
eligibility 1
utc 1
fathers 1
averaged 1
zimbabwe 1
francesco 1
coloured 1
hissed 1
translator 1
lynch 1
mandate 1
humanities 1
mackenzie 1
uniforms 1
lin 1
##iana 1
##gio 1
asset 1
mhz 1
fitting 1
samantha 1
genera 1
wei 1
rim 1
beloved 1
shark 1
riot 1
entities 1
expressions 1
indo 1
carmen 1
slipping 1
owing 1
abbot 1
neighbor 1
sidney 1
##av 1
rats 1
recommendations 1
encouraging 1
squadrons 1
anticipated 1
commanders 1
conquered 1
##oto 1
donations 1
diagnosed 1
##mond 1
divide 1
##iva 1
guessed 1
decoration 1
vernon 1
auditorium 1
revelation 1
conversations 1
##kers 1
##power 1
herzegovina 1
dash 1
alike 1
protested 1
lateral 1
herman 1
accredited 1
mg 1
##gent 1
freeman 1
mel 1
fiji 1
crow 1
crimson 1
##rine 1
livestock 1
##pped 1
humanitarian 1
bored 1
oz 1
whip 1
##lene 1
##ali 1
legitimate 1
alter 1
grinning 1
spelled 1
anxious 1
oriental 1
wesley 1
##nin 1
##hole 1
carnival 1
controller 1
detect 1
##ssa 1
bowed 1
educator 1
kosovo 1
macedonia 1
##sin 1
occupy 1
mastering 1
stephanie 1
janeiro 1
para 1
unaware 1
nurses 1
noon 1
135 1
cam 1
hopefully 1
ranger 1
combine 1
sociology 1
polar 1
rica 1
##eer 1
neill 1
##sman 1
holocaust 1
##ip 1
doubled 1
lust 1
1828 1
109 1
decent 1
cooling 1
unveiled 1
##card 1
1829 1
nsw 1
homer 1
chapman 1
meyer 1
##gin 1
dive 1
mae 1
reagan 1
expertise 1
##gled 1
darwin 1
brooke 1
sided 1
prosecution 1
investigating 1
comprised 1
petroleum 1
genres 1
reluctant 1
differently 1
trilogy 1
johns 1
vegetables 1
corpse 1
highlighted 1
lounge 1
pension 1
unsuccessfully 1
elegant 1
aided 1
ivory 1
beatles 1
amelia 1
cain 1
dubai 1
sunny 1
immigrant 1
babe 1
click 1
##nder 1
underwater 1
pepper 1
combining 1
mumbled 1
atlas 1
horns 1
accessed 1
ballad 1
physicians 1
homeless 1
gestured 1
rpm 1
freak 1
louisville 1
corporations 1
patriots 1
prizes 1
rational 1
warn 1
modes 1
decorative 1
overnight 1
din 1
troubled 1
phantom 1
##ort 1
monarch 1
sheer 1
##dorf 1
generals 1
guidelines 1
organs 1
addresses 1
##zon 1
enhance 1
curling 1
parishes 1
cord 1
##kie 1
linux 1
caesar 1
deutsche 1
bavaria 1
##bia 1
coleman 1
cyclone 1
##eria 1
bacon 1
petty 1
##yama 1
##old 1
hampton 1
diagnosis 1
1824 1
throws 1
complexity 1
rita 1
disputed 1
##₃ 1
pablo 1
##sch 1
marketed 1
trafficking 1
##ulus 1
examine 1
plague 1
formats 1
##oh 1
vault 1
faithful 1
##bourne 1
webster 1
##ox 1
highlights 1
##ient 1
##ann 1
phones 1
vacuum 1
sandwich 1
modeling 1
##gated 1
bolivia 1
clergy 1
qualities 1
isabel 1
##nas 1
##ars 1
wears 1
screams 1
reunited 1
annoyed 1
bra 1
##ancy 1
##rate 1
differential 1
transmitter 1
tattoo 1
container 1
poker 1
##och 1
excessive 1
resides 1
cowboys 1
##tum 1
augustus 1
trash 1
providers 1
statute 1
retreated 1
balcony 1
reversed 1
void 1
storey 1
preceded 1
masses 1
leap 1
laughs 1
neighborhoods 1
wards 1
schemes 1
falcon 1
santo 1
battlefield 1
pad 1
ronnie 1
thread 1
lesbian 1
venus 1
##dian 1
beg 1
sandstone 1
daylight 1
punched 1
gwen 1
analog 1
stroked 1
wwe 1
acceptable 1
measurements 1
dec 1
toxic 1
##kel 1
adequate 1
surgical 1
economist 1
parameters 1
varsity 1
##sberg 1
quantity 1
ella 1
##chy 1
##rton 1
countess 1
generating 1
precision 1
diamonds 1
expressway 1
ga 1
##ı 1
1821 1
uruguay 1
talents 1
galleries 1
expenses 1
scanned 1
colleague 1
outlets 1
ryder 1
lucien 1
##ila 1
paramount 1
##bon 1
syracuse 1
dim 1
fangs 1
gown 1
sweep 1
##sie 1
toyota 1
missionaries 1
websites 1
##nsis 1
sentences 1
adviser 1
val 1
trademark 1
spells 1
##plane 1
patience 1
starter 1
slim 1
##borg 1
toe 1
incredibly 1
shoots 1
elliot 1
nobility 1
##wyn 1
cowboy 1
endorsed 1
gardner 1
tendency 1
persuaded 1
organisms 1
emissions 1
kazakhstan 1
amused 1
boring 1
chips 1
themed 1
##hand 1
llc 1
constantinople 1
chasing 1
systematic 1
guatemala 1
borrowed 1
erin 1
carey 1
##hard 1
highlands 1
struggles 1
1810 1
##ifying 1
##ced 1
wong 1
exceptions 1
develops 1
enlarged 1
kindergarten 1
castro 1
##ern 1
##rina 1
leigh 1
zombie 1
juvenile 1
##most 1
consul 1
##nar 1
sailor 1
hyde 1
clarence 1
intensive 1
pinned 1
nasty 1
useless 1
jung 1
clayton 1
stuffed 1
exceptional 1
ix 1
apostolic 1
230 1
transactions 1
##dge 1
exempt 1
swinging 1
cove 1
religions 1
##ash 1
shields 1
dairy 1
bypass 1
190 1
pursuing 1
bug 1
joyce 1
bombay 1
chassis 1
southampton 1
chat 1
interact 1
redesignated 1
##pen 1
nascar 1
pray 1
salmon 1
rigid 1
regained 1
malaysian 1
grim 1
publicity 1
constituted 1
capturing 1
toilet 1
delegate 1
purely 1
tray 1
drift 1
loosely 1
striker 1
weakened 1
trinidad 1
mitch 1
itv 1
defines 1
transmitted 1
ming 1
scarlet 1
nodding 1
fitzgerald 1
fu 1
narrowly 1
sp 1
tooth 1
standings 1
virtue 1
##₁ 1
##wara 1
##cting 1
chateau 1
gloves 1
lid 1
##nel 1
hurting 1
conservatory 1
##pel 1
sinclair 1
reopened 1
sympathy 1
nigerian 1
strode 1
advocated 1
optional 1
chronic 1
discharge 1
##rc 1
suck 1
compatible 1
laurel 1
stella 1
shi 1
fails 1
wage 1
dodge 1
128 1
informal 1
sorts 1
levi 1
buddha 1
villagers 1
##aka 1
chronicles 1
heavier 1
summoned 1
gateway 1
3000 1
eleventh 1
jewelry 1
translations 1
accordingly 1
seas 1
##ency 1
fiber 1
pyramid 1
cubic 1
dragging 1
##ista 1
caring 1
##ops 1
android 1
contacted 1
lunar 1
##dt 1
kai 1
lisbon 1
patted 1
1826 1
sacramento 1
theft 1
madagascar 1
subtropical 1
disputes 1
ta 1
holidays 1
piper 1
willow 1
mare 1
cane 1
itunes 1
newfoundland 1
benny 1
companions 1
dong 1
raj 1
observe 1
roar 1
charming 1
plaque 1
tibetan 1
fossils 1
enacted 1
manning 1
bubble 1
tina 1
tanzania 1
##eda 1
##hir 1
funk 1
swamp 1
deputies 1
cloak 1
ufc 1
scenario 1
par 1
scratch 1
metals 1
anthem 1
guru 1
engaging 1
specially 1
##boat 1
dialects 1
nineteen 1
cecil 1
duet 1
disability 1
messenger 1
unofficial 1
##lies 1
defunct 1
eds 1
moonlight 1
drainage 1
surname 1
puzzle 1
honda 1
switching 1
conservatives 1
mammals 1
knox 1
broadcaster 1
sidewalk 1
cope 1
##ried 1
benson 1
princes 1
peterson 1
##sal 1
bedford 1
sharks 1
eli 1
wreck 1
alberto 1
gasp 1
archaeology 1
lgbt 1
teaches 1
securities 1
madness 1
compromise 1
waving 1
coordination 1
davidson 1
visions 1
leased 1
possibilities 1
eighty 1
jun 1
fernandez 1
enthusiasm 1
assassin 1
sponsorship 1
reviewer 1
kingdoms 1
estonian 1
laboratories 1
##fy 1
##nal 1
applies 1
verb 1
celebrations 1
##zzo 1
rowing 1
lightweight 1
sadness 1
submit 1
mvp 1
balanced 1
dude 1
##vas 1
explicitly 1
metric 1
magnificent 1
mound 1
brett 1
mohammad 1
mistakes 1
irregular 1
##hing 1
##ass 1
sanders 1
betrayed 1
shipped 1
surge 1
##enburg 1
reporters 1
termed 1
georg 1
pity 1
verbal 1
bulls 1
abbreviated 1
enabling 1
appealed 1
##are 1
##atic 1
sicily 1
sting 1
heel 1
sweetheart 1
bart 1
spacecraft 1
brutal 1
monarchy 1
##tter 1
aberdeen 1
cameo 1
diane 1
##ub 1
survivor 1
clyde 1
##aries 1
complaint 1
##makers 1
clarinet 1
delicious 1
chilean 1
karnataka 1
coordinates 1
1818 1
panties 1
##rst 1
pretending 1
ar 1
dramatically 1
kiev 1
bella 1
tends 1
distances 1
113 1
catalog 1
launching 1
instances 1
telecommunications 1
portable 1
lindsay 1
vatican 1
##eim 1
angles 1
aliens 1
marker 1
stint 1
screens 1
bolton 1
##rne 1
judy 1
wool 1
benedict 1
plasma 1
europa 1
spark 1
imaging 1
filmmaker 1
swiftly 1
##een 1
contributor 1
##nor 1
opted 1
stamps 1
apologize 1
financing 1
butter 1
gideon 1
sophisticated 1
alignment 1
avery 1
chemicals 1
yearly 1
speculation 1
prominence 1
professionally 1
##ils 1
immortal 1
institutional 1
inception 1
wrists 1
identifying 1
tribunal 1
derives 1
gains 1
##wo 1
papal 1
preference 1
linguistic 1
vince 1
operative 1
brewery 1
##ont 1
unemployment 1
boyd 1
##ured 1
##outs 1
albeit 1
prophet 1
1813 1
bi 1
##rr 1
##face 1
##rad 1
quarterly 1
asteroid 1
cleaned 1
radius 1
temper 1
##llen 1
telugu 1
jerk 1
viscount 1
menu 1
##ote 1
glimpse 1
##aya 1
yacht 1
hawaiian 1
baden 1
##rl 1
laptop 1
readily 1
##gu 1
monetary 1
offshore 1
scots 1
watches 1
##yang 1
##arian 1
upgrade 1
needle 1
xbox 1
lea 1
encyclopedia 1
flank 1
fingertips 1
##pus 1
delight 1
teachings 1
confirm 1
roth 1
beaches 1
midway 1
winters 1
##iah 1
teasing 1
daytime 1
beverly 1
gambling 1
bonnie 1
##backs 1
regulated 1
clement 1
hermann 1
tricks 1
knot 1
##shing 1
##uring 1
##vre 1
detached 1
ecological 1
owed 1
specialty 1
byron 1
inventor 1
bats 1
stays 1
screened 1
unesco 1
midland 1
trim 1
affection 1
##ander 1
##rry 1
jess 1
thoroughly 1
feedback 1
##uma 1
chennai 1
strained 1
heartbeat 1
wrapping 1
overtime 1
pleaded 1
##sworth 1
mon 1
leisure 1
oclc 1
##tate 1
##ele 1
feathers 1
angelo 1
thirds 1
nuts 1
surveys 1
clever 1
gill 1
commentator 1
##dos 1
darren 1
rides 1
gibraltar 1
##nc 1
##mu 1
dissolution 1
dedication 1
shin 1
meals 1
saddle 1
elvis 1
reds 1
chaired 1
taller 1
appreciation 1
functioning 1
niece 1
favored 1
advocacy 1
robbie 1
criminals 1
suffolk 1
yugoslav 1
passport 1
constable 1
congressman 1
hastings 1
vera 1
##rov 1
consecrated 1
sparks 1
ecclesiastical 1
confined 1
##ovich 1
muller 1
floyd 1
nora 1
1822 1
paved 1
1827 1
cumberland 1
ned 1
saga 1
spiral 1
##flow 1
appreciated 1
yi 1
collaborative 1
treating 1
similarities 1
feminine 1
finishes 1
##ib 1
jade 1
import 1
##nse 1
##hot 1
champagne 1
mice 1
securing 1
celebrities 1
helsinki 1
attributes 1
##gos 1
cousins 1
phases 1
ache 1
lucia 1
gandhi 1
submission 1
vicar 1
spear 1
shine 1
tasmania 1
biting 1
detention 1
constitute 1
tighter 1
seasonal 1
##gus 1
terrestrial 1
matthews 1
##oka 1
effectiveness 1
parody 1
philharmonic 1
##onic 1
1816 1
strangers 1
encoded 1
consortium 1
guaranteed 1
regards 1
shifts 1
tortured 1
collision 1
supervisor 1
inform 1
broader 1
insight 1
theaters 1
armour 1
emeritus 1
blink 1
incorporates 1
mapping 1
##50 1
##ein 1
handball 1
flexible 1
##nta 1
substantially 1
generous 1
thief 1
##own 1
carr 1
loses 1
1793 1
prose 1
ucla 1
romeo 1
generic 1
metallic 1
realization 1
damages 1
mk 1
commissioners 1
zach 1
default 1
##ther 1
helicopters 1
lengthy 1
stems 1
spa 1
partnered 1
spectators 1
rogue 1
indication 1
penalties 1
teresa 1
1801 1
sen 1
##tric 1
dalton 1
##wich 1
irving 1
photographic 1
##vey 1
dell 1
deaf 1
peters 1
excluded 1
unsure 1
##vable 1
patterson 1
crawled 1
##zio 1
resided 1
whipped 1
latvia 1
slower 1
ecole 1
pipes 1
employers 1
maharashtra 1
comparable 1
va 1
textile 1
pageant 1
##gel 1
alphabet 1
binary 1
irrigation 1
chartered 1
choked 1
antoine 1
offs 1
waking 1
supplement 1
##wen 1
quantities 1
demolition 1
regain 1
locate 1
urdu 1
folks 1
alt 1
114 1
##mc 1
scary 1
andreas 1
whites 1
##ava 1
classrooms 1
mw 1
aesthetic 1
publishes 1
valleys 1
guides 1
cubs 1
johannes 1
bryant 1
conventions 1
affecting 1
##itt 1
drain 1
awesome 1
isolation 1
prosecutor 1
ambitious 1
apology 1
captive 1
downs 1
atmospheric 1
lorenzo 1
aisle 1
beef 1
foul 1
##onia 1
kidding 1
composite 1
disturbed 1
illusion 1
natives 1
##ffer 1
emi 1
rockets 1
riverside 1
wartime 1
painters 1
adolf 1
melted 1
##ail 1
uncertainty 1
simulation 1
hawks 1
progressed 1
meantime 1
builder 1
spray 1
breach 1
unhappy 1
regina 1
russians 1
##urg 1
determining 1
##tation 1
tram 1
1806 1
##quin 1
aging 1
##12 1
1823 1
garion 1
rented 1
mister 1
diaz 1
terminated 1
clip 1
1817 1
depend 1
nervously 1
disco 1
owe 1
defenders 1
shiva 1
notorious 1
disbelief 1
shiny 1
worcester 1
##gation 1
##yr 1
trailing 1
undertook 1
islander 1
belarus 1
limitations 1
watershed 1
fuller 1
overlooking 1
utilized 1
raphael 1
1819 1
synthetic 1
breakdown 1
klein 1
##nate 1
moaned 1
memoir 1
lamb 1
practicing 1
##erly 1
cellular 1
arrows 1
exotic 1
##graphy 1
witches 1
117 1
charted 1
rey 1
hut 1
hierarchy 1
subdivision 1
freshwater 1
giuseppe 1
aloud 1
reyes 1
qatar 1
marty 1
sideways 1
utterly 1
sexually 1
jude 1
prayers 1
mccarthy 1
softball 1
blend 1
damien 1
##gging 1
##metric 1
wholly 1
erupted 1
lebanese 1
negro 1
revenues 1
tasted 1
comparative 1
teamed 1
transaction 1
labeled 1
maori 1
sovereignty 1
parkway 1
trauma 1
gran 1
malay 1
121 1
advancement 1
descendant 1
2020 1
buzz 1
salvation 1
inventory 1
symbolic 1
##making 1
antarctica 1
mps 1
##gas 1
##bro 1
mohammed 1
myanmar 1
holt 1
submarines 1
tones 1
##lman 1
locker 1
patriarch 1
bangkok 1
emerson 1
remarks 1
predators 1
kin 1
afghan 1
confession 1
norwich 1
rental 1
emerge 1
advantages 1
##zel 1
rca 1
##hold 1
shortened 1
storms 1
aidan 1
##matic 1
autonomy 1
compliance 1
##quet 1
dudley 1
atp 1
##osis 1
1803 1
motto 1
documentation 1
summary 1
professors 1
spectacular 1
christina 1
archdiocese 1
flashing 1
innocence 1
remake 1
##dell 1
psychic 1
reef 1
scare 1
employ 1
rs 1
sticks 1
meg 1
gus 1
leans 1
##ude 1
accompany 1
bergen 1
tomas 1
##iko 1
doom 1
wages 1
pools 1
##nch 1
##bes 1
breasts 1
scholarly 1
alison 1
outline 1
brittany 1
breakthrough 1
willis 1
realistic 1
##cut 1
##boro 1
competitor 1
##stan 1
pike 1
picnic 1
icon 1
designing 1
commercials 1
washing 1
villain 1
skiing 1
micro 1
costumes 1
auburn 1
halted 1
executives 1
##hat 1
logistics 1
cycles 1
vowel 1
applicable 1
barrett 1
exclaimed 1
eurovision 1
eternity 1
ramon 1
##umi 1
##lls 1
modifications 1
sweeping 1
disgust 1
##uck 1
torch 1
aviv 1
ensuring 1
rude 1
dusty 1
sonic 1
donovan 1
outskirts 1
cu 1
pathway 1
##band 1
##gun 1
##lines 1
disciplines 1
acids 1
cadet 1
paired 1
##40 1
sketches 1
##sive 1
marriages 1
##⁺ 1
folding 1
peers 1
slovak 1
implies 1
admired 1
##beck 1
1880s 1
leopold 1
instinct 1
attained 1
weston 1
megan 1
horace 1
##ination 1
dorsal 1
ingredients 1
evolutionary 1
##its 1
complications 1
deity 1
lethal 1
brushing 1
levy 1
deserted 1
institutes 1
posthumously 1
delivering 1
telescope 1
coronation 1
motivated 1
rapids 1
luc 1
flicked 1
pays 1
volcano 1
tanner 1
weighed 1
##nica 1
crowds 1
frankie 1
gifted 1
addressing 1
granddaughter 1
winding 1
##rna 1
constantine 1
gomez 1
##front 1
landscapes 1
rudolf 1
anthropology 1
slate 1
werewolf 1
##lio 1
astronomy 1
circa 1
rouge 1
dreaming 1
sack 1
knelt 1
drowned 1
naomi 1
prolific 1
tracked 1
freezing 1
herb 1
##dium 1
agony 1
randall 1
twisting 1
wendy 1
deposit 1
touches 1
vein 1
wheeler 1
##bbled 1
##bor 1
batted 1
retaining 1
tire 1
presently 1
compare 1
specification 1
daemon 1
nigel 1
##grave 1
merry 1
recommendation 1
czechoslovakia 1
sandra 1
ng 1
roma 1
##sts 1
lambert 1
inheritance 1
sheikh 1
winchester 1
cries 1
examining 1
##yle 1
comeback 1
cuisine 1
nave 1
##iv 1
ko 1
retrieve 1
tomatoes 1
barker 1
polished 1
defining 1
irene 1
lantern 1
personalities 1
begging 1
tract 1
swore 1
1809 1
175 1
##gic 1
omaha 1
brotherhood 1
##rley 1
haiti 1
##ots 1
exeter 1
##ete 1
##zia 1
steele 1
dumb 1
pearson 1
210 1
surveyed 1
elisabeth 1
trends 1
##ef 1
fritz 1
##rf 1
premium 1
bugs 1
fraction 1
calmly 1
viking 1
##birds 1
tug 1
inserted 1
unusually 1
##ield 1
confronted 1
distress 1
crashing 1
brent 1
turks 1
resign 1
##olo 1
cambodia 1
gabe 1
sauce 1
##kal 1
evelyn 1
116 1
extant 1
clusters 1
quarry 1
teenagers 1
luna 1
##lers 1
##ister 1
affiliation 1
drill 1
##ashi 1
panthers 1
scenic 1
libya 1
anita 1
strengthen 1
inscriptions 1
##cated 1
lace 1
sued 1
judith 1
riots 1
##uted 1
mint 1
##eta 1
preparations 1
midst 1
dub 1
challenger 1
##vich 1
mock 1
cf 1
displaced 1
wicket 1
breaths 1
enables 1
schmidt 1
analyst 1
##lum 1
ag 1
highlight 1
automotive 1
axe 1
josef 1
newark 1
sufficiently 1
resembles 1
50th 1
##pal 1
flushed 1
mum 1
traits 1
##ante 1
commodore 1
incomplete 1
warming 1
titular 1
ceremonial 1
ethical 1
118 1
celebrating 1
eighteenth 1
cao 1
lima 1
medalist 1
mobility 1
strips 1
snakes 1
##city 1
miniature 1
zagreb 1
barton 1
escapes 1
umbrella 1
automated 1
doubted 1
differs 1
cooled 1
georgetown 1
dresden 1
cooked 1
fade 1
wyatt 1
rna 1
jacobs 1
carlton 1
abundant 1
stereo 1
boost 1
madras 1
inning 1
##hia 1
spur 1
ip 1
malayalam 1
begged 1
osaka 1
groan 1
escaping 1
charging 1
dose 1
vista 1
##aj 1
bud 1
papa 1
communists 1
advocates 1
edged 1
tri 1
##cent 1
resemble 1
peaking 1
necklace 1
fried 1
montenegro 1
saxony 1
goose 1
glances 1
stuttgart 1
curator 1
recruit 1
grocery 1
sympathetic 1
##tting 1
##fort 1
127 1
lotus 1
randolph 1
ancestor 1
##rand 1
succeeding 1
jupiter 1
1798 1
macedonian 1
##heads 1
hiking 1
1808 1
handing 1
fischer 1
##itive 1
garbage 1
node 1
##pies 1
prone 1
singular 1
papua 1
inclined 1
attractions 1
italia 1
pouring 1
motioned 1
grandma 1
garnered 1
jacksonville 1
corp 1
ego 1
ringing 1
aluminum 1
##hausen 1
ordering 1
##foot 1
drawer 1
traders 1
synagogue 1
##play 1
##kawa 1
resistant 1
wandering 1
fragile 1
fiona 1
teased 1
var 1
hardcore 1
soaked 1
jubilee 1
decisive 1
exposition 1
mercer 1
poster 1
valencia 1
hale 1
kuwait 1
1811 1
##ises 1
##wr 1
##eed 1
tavern 1
gamma 1
122 1
johan 1
##uer 1
airways 1
amino 1
gil 1
##ury 1
vocational 1
domains 1
torres 1
##sp 1
generator 1
folklore 1
outcomes 1
##keeper 1
canberra 1
shooter 1
fl 1
beams 1
confrontation 1
##lling 1
##gram 1
feb 1
aligned 1
forestry 1
pipeline 1
jax 1
motorway 1
conception 1
decay 1
##tos 1
coffin 1
##cott 1
stalin 1
1805 1
escorted 1
minded 1
##nam 1
sitcom 1
purchasing 1
twilight 1
veronica 1
additions 1
passive 1
tensions 1
straw 1
123 1
frequencies 1
1804 1
refugee 1
cultivation 1
##iate 1
christie 1
clary 1
bulletin 1
crept 1
disposal 1
##rich 1
##zong 1
processor 1
crescent 1
##rol 1
bmw 1
emphasized 1
whale 1
nazis 1
aurora 1
##eng 1
dwelling 1
hauled 1
sponsors 1
toledo 1
mega 1
ideology 1
theatres 1
tessa 1
cerambycidae 1
saves 1
turtle 1
cone 1
suspects 1
kara 1
rusty 1
yelling 1
greeks 1
mozart 1
shades 1
cocked 1
participant 1
##tro 1
shire 1
spit 1
freeze 1
necessity 1
##cos 1
inmates 1
nielsen 1
councillors 1
loaned 1
uncommon 1
omar 1
peasants 1
botanical 1
offspring 1
daniels 1
formations 1
jokes 1
1794 1
pioneers 1
sigma 1
licensing 1
##sus 1
wheelchair 1
polite 1
1807 1
liquor 1
pratt 1
trustee 1
##uta 1
forewings 1
balloon 1
##zz 1
kilometre 1
camping 1
explicit 1
casually 1
shawn 1
foolish 1
teammates 1
nm 1
hassan 1
carrie 1
judged 1
satisfy 1
vanessa 1
knives 1
selective 1
cnn 1
flowed 1
##lice 1
eclipse 1
stressed 1
eliza 1
mathematician 1
cease 1
cultivated 1
##roy 1
commissions 1
browns 1
##ania 1
destroyers 1
sheridan 1
meadow 1
##rius 1
minerals 1
##cial 1
downstream 1
clash 1
gram 1
memoirs 1
ventures 1
baha 1
seymour 1
archie 1
midlands 1
edith 1
fare 1
flynn 1
invite 1
canceled 1
tiles 1
stabbed 1
boulder 1
incorporate 1
amended 1
camden 1
facial 1
mollusk 1
unreleased 1
descriptions 1
yoga 1
grabs 1
550 1
raises 1
ramp 1
shiver 1
##rose 1
coined 1
pioneering 1
tunes 1
qing 1
warwick 1
tops 1
119 1
melanie 1
giles 1
##rous 1
wandered 1
##inal 1
annexed 1
nov 1
30th 1
unnamed 1
##ished 1
organizational 1
airplane 1
normandy 1
stoke 1
whistle 1
blessing 1
violations 1
chased 1
holders 1
shotgun 1
##ctic 1
outlet 1
reactor 1
##vik 1
tires 1
tearing 1
shores 1
fortified 1
mascot 1
constituencies 1
nc 1
columnist 1
productive 1
tibet 1
##rta 1
lineage 1
hooked 1
oct 1
tapes 1
judging 1
cody 1
##gger 1
hansen 1
kashmir 1
triggered 1
##eva 1
solved 1
cliffs 1
##tree 1
resisted 1
anatomy 1
protesters 1
transparent 1
implied 1
##iga 1
injection 1
mattress 1
excluding 1
##mbo 1
defenses 1
helpless 1
devotion 1
##elli 1
growl 1
liberals 1
weber 1
phenomena 1
atoms 1
plug 1
##iff 1
mortality 1
apprentice 1
howe 1
convincing 1
aaa 1
swimmer 1
barber 1
leone 1
promptly 1
sodium 1
def 1
nowadays 1
arise 1
##oning 1
gloucester 1
corrected 1
dignity 1
norm 1
erie 1
##ders 1
elders 1
evacuated 1
sylvia 1
compression 1
##yar 1
hartford 1
pose 1
backpack 1
reasoning 1
accepts 1
24th 1
wipe 1
millimetres 1
marcel 1
##oda 1
dodgers 1
albion 1
1790 1
overwhelmed 1
aerospace 1
oaks 1
1795 1
showcase 1
acknowledge 1
recovering 1
nolan 1
ashe 1
hurts 1
geology 1
fashioned 1
disappearance 1
farewell 1
swollen 1
shrug 1
marquis 1
wimbledon 1
124 1
rue 1
1792 1
commemorate 1
reduces 1
experiencing 1
inevitable 1
calcutta 1
intel 1
##court 1
murderer 1
sticking 1
fisheries 1
imagery 1
bloom 1
280 1
brake 1
##inus 1
gustav 1
hesitation 1
memorable 1
po 1
viral 1
beans 1
accidents 1
tunisia 1
antenna 1
spilled 1
consort 1
treatments 1
aye 1
perimeter 1
##gard 1
donation 1
hostage 1
migrated 1
banker 1
addiction 1
apex 1
lil 1
trout 1
##ously 1
conscience 1
##nova 1
rams 1
sands 1
genome 1
passionate 1
troubles 1
##lets 1
##set 1
amid 1
##ibility 1
##ret 1
higgins 1
exceed 1
vikings 1
##vie 1
payne 1
##zan 1
muscular 1
##ste 1
defendant 1
sucking 1
##wal 1
ibrahim 1
fuselage 1
claudia 1
vfl 1
europeans 1
snails 1
interval 1
##garh 1
preparatory 1
statewide 1
tasked 1
lacrosse 1
viktor 1
##lation 1
angola 1
##hra 1
flint 1
implications 1
employs 1
teens 1
patrons 1
stall 1
weekends 1
barriers 1
scrambled 1
nucleus 1
tehran 1
jenna 1
parsons 1
lifelong 1
robots 1
displacement 1
5000 1
##bles 1
precipitation 1
##gt 1
knuckles 1
clutched 1
1802 1
marrying 1
ecology 1
marx 1
accusations 1
declare 1
scars 1
kolkata 1
mat 1
meadows 1
bermuda 1
skeleton 1
finalists 1
vintage 1
crawl 1
coordinate 1
affects 1
subjected 1
orchestral 1
mistaken 1
##tc 1
mirrors 1
dipped 1
relied 1
260 1
arches 1
candle 1
##nick 1
incorporating 1
wildly 1
fond 1
basilica 1
owl 1
fringe 1
rituals 1
whispering 1
stirred 1
feud 1
tertiary 1
slick 1
goat 1
honorable 1
whereby 1
skip 1
ricardo 1
stripes 1
parachute 1
adjoining 1
submerged 1
synthesizer 1
##gren 1
intend 1
positively 1
ninety 1
phi 1
beaver 1
partition 1
fellows 1
alexis 1
prohibition 1
carlisle 1
bizarre 1
fraternity 1
##bre 1
doubts 1
icy 1
cbc 1
aquatic 1
sneak 1
sonny 1
combines 1
airports 1
crude 1
supervised 1
spatial 1
merge 1
alfonso 1
##bic 1
corrupt 1
scan 1
undergo 1
##ams 1
disabilities 1
colombian 1
comparing 1
dolphins 1
perkins 1
##lish 1
reprinted 1
unanimous 1
bounced 1
hairs 1
underworld 1
midwest 1
semester 1
bucket 1
paperback 1
miniseries 1
coventry 1
demise 1
##leigh 1
demonstrations 1
sensor 1
rotating 1
yan 1
##hler 1
arrange 1
soils 1
##idge 1
hyderabad 1
labs 1
##dr 1
brakes 1
grandchildren 1
##nde 1
negotiated 1
rover 1
ferrari 1
continuation 1
directorate 1
augusta 1
stevenson 1
counterpart 1
gore 1
##rda 1
nursery 1
rican 1
ave 1
collectively 1
broadly 1
pastoral 1
repertoire 1
asserted 1
discovering 1
nordic 1
styled 1
fiba 1
cunningham 1
harley 1
middlesex 1
survives 1
tumor 1
tempo 1
zack 1
aiming 1
lok 1
urgent 1
##rade 1
##nto 1
devils 1
##ement 1
contractor 1
turin 1
##wl 1
##ool 1
bliss 1
repaired 1
simmons 1
moan 1
astronomical 1
cr 1
negotiate 1
lyric 1
1890s 1
lara 1
bred 1
clad 1
angus 1
pbs 1
##ience 1
engineered 1
posed 1
##lk 1
hernandez 1
possessions 1
elbows 1
psychiatric 1
strokes 1
confluence 1
electorate 1
lifts 1
campuses 1
lava 1
alps 1
##ep 1
##ution 1
##date 1
physicist 1
woody 1
##page 1
##ographic 1
##itis 1
juliet 1
reformation 1
sparhawk 1
320 1
complement 1
suppressed 1
jewel 1
##½ 1
floated 1
##kas 1
continuity 1
sadly 1
##ische 1
inability 1
melting 1
scanning 1
paula 1
flour 1
judaism 1
safer 1
vague 1
##lm 1
solving 1
curb 1
##stown 1
financially 1
gable 1
bees 1
expired 1
miserable 1
cassidy 1
dominion 1
1789 1
cupped 1
145 1
robbery 1
facto 1
amos 1
warden 1
resume 1
tallest 1
marvin 1
ing 1
pounded 1
usd 1
declaring 1
gasoline 1
##aux 1
darkened 1
270 1
650 1
sophomore 1
##mere 1
erection 1
gossip 1
televised 1
risen 1
dial 1
##eu 1
pillars 1
##link 1
passages 1
profound 1
##tina 1
arabian 1
ashton 1
silicon 1
nail 1
##ead 1
##lated 1
##wer 1
##hardt 1
fleming 1
firearms 1
ducked 1
circuits 1
blows 1
waterloo 1
titans 1
##lina 1
atom 1
fireplace 1
cheshire 1
financed 1
activation 1
algorithms 1
##zzi 1
constituent 1
catcher 1
cherokee 1
partnerships 1
sexuality 1
platoon 1
tragic 1
vivian 1
guarded 1
whiskey 1
meditation 1
poetic 1
##late 1
##nga 1
##ake 1
porto 1
listeners 1
dominance 1
kendra 1
mona 1
chandler 1
factions 1
22nd 1
salisbury 1
attitudes 1
derivative 1
##ido 1
##haus 1
intake 1
paced 1
javier 1
illustrator 1
barrels 1
bias 1
cockpit 1
burnett 1
dreamed 1
ensuing 1
##anda 1
receptors 1
someday 1
hawkins 1
mattered 1
##lal 1
slavic 1
1799 1
jesuit 1
cameroon 1
wasted 1
tai 1
wax 1
lowering 1
victorious 1
freaking 1
outright 1
hancock 1
librarian 1
sensing 1
bald 1
calcium 1
myers 1
tablet 1
announcing 1
barack 1
shipyard 1
pharmaceutical 1
##uan 1
greenwich 1
flush 1
medley 1
patches 1
wolfgang 1
pt 1
speeches 1
acquiring 1
exams 1
nikolai 1
##gg 1
hayden 1
kannada 1
##type 1
reilly 1
##pt 1
waitress 1
abdomen 1
devastated 1
capped 1
pseudonym 1
pharmacy 1
fulfill 1
paraguay 1
1796 1
clicked 1
##trom 1
archipelago 1
syndicated 1
##hman 1
lumber 1
orgasm 1
rejection 1
clifford 1
lorraine 1
advent 1
mafia 1
rodney 1
brock 1
##ght 1
##used 1
##elia 1
cassette 1
chamberlain 1
despair 1
mongolia 1
sensors 1
developmental 1
upstream 1
##eg 1
##alis 1
spanning 1
165 1
trombone 1
basque 1
seeded 1
interred 1
renewable 1
rhys 1
leapt 1
revision 1
molecule 1
##ages 1
chord 1
vicious 1
nord 1
shivered 1
23rd 1
arlington 1
debts 1
corpus 1
sunrise 1
bays 1
blackburn 1
centimetres 1
##uded 1
shuddered 1
gm 1
strangely 1
gripping 1
cartoons 1
isabelle 1
orbital 1
##ppa 1
seals 1
proving 1
##lton 1
refusal 1
strengthened 1
bust 1
assisting 1
baghdad 1
batsman 1
portrayal 1
mara 1
pushes 1
spears 1
og 1
##cock 1
reside 1
nathaniel 1
brennan 1
1776 1
confirmation 1
caucus 1
##worthy 1
markings 1
yemen 1
nobles 1
ku 1
lazy 1
viewer 1
catalan 1
encompasses 1
sawyer 1
##fall 1
sparked 1
substances 1
patents 1
braves 1
arranger 1
evacuation 1
sergio 1
persuade 1
dover 1
tolerance 1
penguin 1
cum 1
jockey 1
insufficient 1
townships 1
occupying 1
declining 1
plural 1
processed 1
projection 1
puppet 1
flanders 1
introduces 1
liability 1
##yon 1
gymnastics 1
antwerp 1
taipei 1
hobart 1
candles 1
jeep 1
wes 1
observers 1
126 1
chaplain 1
bundle 1
glorious 1
##hine 1
hazel 1
flung 1
sol 1
excavations 1
dumped 1
stares 1
sh 1
bangalore 1
triangular 1
icelandic 1
intervals 1
expressing 1
turbine 1
##vers 1
songwriting 1
crafts 1
##igo 1
jasmine 1
ditch 1
rite 1
##ways 1
entertaining 1
comply 1
sorrow 1
wrestlers 1
basel 1
emirates 1
marian 1
rivera 1
helpful 1
##some 1
caution 1
downward 1
networking 1
##atory 1
##tered 1
darted 1
genocide 1
emergence 1
replies 1
specializing 1
spokesman 1
convenient 1
unlocked 1
fading 1
augustine 1
concentrations 1
resemblance 1
elijah 1
investigator 1
andhra 1
##uda 1
promotes 1
bean 1
##rrell 1
fleeing 1
wan 1
simone 1
announcer 1
##ame 1
##bby 1
lydia 1
weaver 1
132 1
residency 1
modification 1
##fest 1
stretches 1
##ast 1
alternatively 1
nat 1
lowe 1
lacks 1
##ented 1
pam 1
tile 1
concealed 1
inferior 1
abdullah 1
residences 1
tissues 1
vengeance 1
##ided 1
moisture 1
peculiar 1
groove 1
zip 1
bologna 1
jennings 1
ninja 1
oversaw 1
zombies 1
pumping 1
batch 1
livingston 1
emerald 1
installations 1
1797 1
peel 1
nitrogen 1
rama 1
##fying 1
##star 1
schooling 1
strands 1
responding 1
werner 1
##ost 1
lime 1
casa 1
accurately 1
targeting 1
##rod 1
underway 1
##uru 1
hemisphere 1
lester 1
##yard 1
occupies 1
2d 1
griffith 1
angrily 1
reorganized 1
##owing 1
courtney 1
deposited 1
##dd 1
##30 1
estadio 1
##ifies 1
dunn 1
exiled 1
##ying 1
checks 1
##combe 1
##о 1
##fly 1
successes 1
unexpectedly 1
blu 1
assessed 1
##flower 1
##ه 1
observing 1
sacked 1
spiders 1
kn 1
##tail 1
mu 1
nodes 1
prosperity 1
audrey 1
divisional 1
155 1
broncos 1
tangled 1
adjust 1
feeds 1
erosion 1
paolo 1
surf 1
directory 1
snatched 1
humid 1
admiralty 1
screwed 1
gt 1
reddish 1
##nese 1
modules 1
trench 1
lamps 1
bind 1
leah 1
bucks 1
competes 1
##nz 1
##form 1
transcription 1
##uc 1
isles 1
violently 1
clutching 1
pga 1
cyclist 1
inflation 1
flats 1
ragged 1
unnecessary 1
##hian 1
stubborn 1
coordinated 1
harriet 1
baba 1
disqualified 1
330 1
insect 1
wolfe 1
##fies 1
reinforcements 1
rocked 1
duel 1
winked 1
embraced 1
bricks 1
##raj 1
hiatus 1
defeats 1
pending 1
brightly 1
jealousy 1
##xton 1
##hm 1
##uki 1
lena 1
gdp 1
colorful 1
##dley 1
stein 1
kidney 1
##shu 1
underwear 1
wanderers 1
##haw 1
##icus 1
guardians 1
m³ 1
roared 1
habits 1
##wise 1
permits 1
gp 1
uranium 1
punished 1
disguise 1
bundesliga 1
elise 1
dundee 1
erotic 1
partisan 1
pi 1
collectors 1
float 1
individually 1
rendering 1
behavioral 1
bucharest 1
ser 1
hare 1
valerie 1
corporal 1
nutrition 1
proportional 1
##isa 1
immense 1
##kis 1
pavement 1
##zie 1
##eld 1
sutherland 1
crouched 1
1775 1
##lp 1
suzuki 1
trades 1
endurance 1
operas 1
crosby 1
prayed 1
priory 1
rory 1
socially 1
##urn 1
gujarat 1
##pu 1
walton 1
cube 1
pasha 1
privilege 1
lennon 1
floods 1
thorne 1
waterfall 1
nipple 1
scouting 1
approve 1
##lov 1
minorities 1
voter 1
dwight 1
extensions 1
assure 1
ballroom 1
slap 1
dripping 1
privileges 1
rejoined 1
confessed 1
demonstrating 1
patriotic 1
yell 1
investor 1
##uth 1
pagan 1
slumped 1
squares 1
##cle 1
##kins 1
confront 1
bert 1
embarrassment 1
##aid 1
aston 1
urging 1
sweater 1
starr 1
yuri 1
brains 1
williamson 1
commuter 1
mortar 1
structured 1
selfish 1
exports 1
##jon 1
cds 1
##him 1
unfinished 1
##rre 1
mortgage 1
destinations 1
##nagar 1
canoe 1
solitary 1
buchanan 1
delays 1
magistrate 1
fk 1
##pling 1
motivation 1
##lier 1
##vier 1
recruiting 1
assess 1
##mouth 1
malik 1
antique 1
1791 1
pius 1
rahman 1
reich 1
tub 1
zhou 1
smashed 1
airs 1
galway 1
xii 1
conditioning 1
honduras 1
discharged 1
dexter 1
##pf 1
lionel 1
129 1
debates 1
lemon 1
tiffany 1
volunteered 1
dom 1
dioxide 1
procession 1
devi 1
sic 1
tremendous 1
advertisements 1
colts 1
transferring 1
verdict 1
hanover 1
decommissioned 1
utter 1
relate 1
pac 1
racism 1
##top 1
beacon 1
limp 1
similarity 1
terra 1
occurrence 1
ant 1
##how 1
becky 1
capt 1
updates 1
armament 1
richie 1
pal 1
##graph 1
halloween 1
mayo 1
##ssen 1
##bone 1
cara 1
serena 1
fcc 1
dolls 1
obligations 1
##dling 1
violated 1
lafayette 1
jakarta 1
exploitation 1
##ime 1
infamous 1
iconic 1
##lah 1
##park 1
kitty 1
moody 1
reginald 1
dread 1
spill 1
crystals 1
olivier 1
modeled 1
bluff 1
equilibrium 1
separating 1
notices 1
ordnance 1
extinction 1
onset 1
cosmic 1
attachment 1
sammy 1
expose 1
privy 1
anchored 1
##bil 1
abbott 1
admits 1
bending 1
baritone 1
emmanuel 1
policeman 1
vaughan 1
winged 1
climax 1
dresses 1
denny 1
polytechnic 1
mohamed 1
burmese 1
authentic 1
nikki 1
genetics 1
grandparents 1
homestead 1
gaza 1
postponed 1
metacritic 1
una 1
##sby 1
##bat 1
unstable 1
dissertation 1
##rial 1
##cian 1
curls 1
obscure 1
uncovered 1
bronx 1
praying 1
disappearing 1
##hoe 1
prehistoric 1
coke 1
turret 1
mutations 1
nonprofit 1
pits 1
monaco 1
##ي 1
##usion 1
prominently 1
dispatched 1
podium 1
##mir 1
uci 1
##uation 1
133 1
fortifications 1
birthplace 1
kendall 1
##lby 1
##oll 1
preacher 1
rack 1
goodman 1
##rman 1
persistent 1
##ott 1
countless 1
jaime 1
recorder 1
lexington 1
persecution 1
jumps 1
renewal 1
wagons 1
##11 1
crushing 1
##holder 1
decorations 1
##lake 1
abundance 1
wrath 1
laundry 1
£1 1
garde 1
##rp 1
jeanne 1
beetles 1
peasant 1
##sl 1
splitting 1
caste 1
sergei 1
##rer 1
##ema 1
scripts 1
##ively 1
rub 1
satellites 1
##vor 1
inscribed 1
verlag 1
scrapped 1
gale 1
packages 1
chick 1
potato 1
slogan 1
kathleen 1
arabs 1
##culture 1
counterparts 1
reminiscent 1
choral 1
##tead 1
rand 1
retains 1
bushes 1
dane 1
accomplish 1
courtesy 1
closes 1
##oth 1
slaughter 1
hague 1
krakow 1
lawson 1
tailed 1
elias 1
ginger 1
##ttes 1
canopy 1
betrayal 1
rebuilding 1
turf 1
##hof 1
frowning 1
allegiance 1
brigades 1
kicks 1
rebuild 1
polls 1
alias 1
nationalism 1
td 1
rowan 1
audition 1
bowie 1
fortunately 1
recognizes 1
harp 1
dillon 1
horrified 1
##oro 1
renault 1
##tics 1
ropes 1
##α 1
presumed 1
rewarded 1
infrared 1
wiping 1
accelerated 1
illustration 1
##rid 1
presses 1
practitioners 1
badminton 1
##iard 1
detained 1
##tera 1
recognizing 1
relates 1
misery 1
##sies 1
##tly 1
reproduction 1
piercing 1
potatoes 1
thornton 1
esther 1
manners 1
hbo 1
##aan 1
ours 1
bullshit 1
ernie 1
perennial 1
sensitivity 1
illuminated 1
rupert 1
##jin 1
##iss 1
##ear 1
rfc 1
nassau 1
##dock 1
staggered 1
socialism 1
##haven 1
appointments 1
nonsense 1
prestige 1
sharma 1
haul 1
##tical 1
solidarity 1
gps 1
##ook 1
##rata 1
igor 1
pedestrian 1
##uit 1
baxter 1
tenants 1
wires 1
medication 1
unlimited 1
guiding 1
impacts 1
diabetes 1
##rama 1
sasha 1
pas 1
clive 1
extraction 1
131 1
continually 1
constraints 1
##bilities 1
sonata 1
hunted 1
sixteenth 1
chu 1
planting 1
quote 1
mayer 1
pretended 1
abs 1
spat 1
##hua 1
ceramic 1
##cci 1
curtains 1
pigs 1
pitching 1
##dad 1
latvian 1
sore 1
dayton 1
##sted 1
##qi 1
patrols 1
slice 1
playground 1
##nted 1
shone 1
stool 1
apparatus 1
inadequate 1
mates 1
treason 1
##ija 1
desires 1
##liga 1
##croft 1
somalia 1
laurent 1
mir 1
leonardo 1
oracle 1
grape 1
obliged 1
chevrolet 1
thirteenth 1
stunning 1
enthusiastic 1
##ede 1
accounted 1
concludes 1
currents 1
basil 1
##kovic 1
drought 1
##rica 1
mai 1
##aire 1
shove 1
posting 1
##shed 1
pilgrimage 1
humorous 1
packing 1
fry 1
pencil 1
wines 1
smells 1
144 1
marilyn 1
aching 1
newest 1
clung 1
bon 1
neighbours 1
sanctioned 1
##pie 1
mug 1
##stock 1
drowning 1
##mma 1
hydraulic 1
##vil 1
hiring 1
reminder 1
lilly 1
investigators 1
##ncies 1
sour 1
##eous 1
compulsory 1
packet 1
##rion 1
##graphic 1
##elle 1
cannes 1
##inate 1
depressed 1
##rit 1
heroic 1
importantly 1
theresa 1
##tled 1
conway 1
saturn 1
marginal 1
rae 1
##xia 1
corresponds 1
royce 1
pact 1
jasper 1
explosives 1
packaging 1
aluminium 1
##ttered 1
denotes 1
rhythmic 1
spans 1
assignments 1
hereditary 1
outlined 1
originating 1
sundays 1
lad 1
reissued 1
greeting 1
beatrice 1
##dic 1
pillar 1
marcos 1
plots 1
handbook 1
alcoholic 1
judiciary 1
avant 1
slides 1
extract 1
masculine 1
blur 1
##eum 1
##force 1
homage 1
trembled 1
owens 1
hymn 1
trey 1
omega 1
signaling 1
socks 1
accumulated 1
reacted 1
attic 1
theo 1
lining 1
angie 1
distraction 1
primera 1
talbot 1
##key 1
1200 1
ti 1
creativity 1
billed 1
##hey 1
deacon 1
eduardo 1
identifies 1
proposition 1
dizzy 1
gunner 1
hogan 1
##yam 1
##pping 1
##hol 1
ja 1
##chan 1
jensen 1
reconstructed 1
##berger 1
clearance 1
darius 1
##nier 1
abe 1
harlem 1
plea 1
dei 1
circled 1
emotionally 1
notation 1
fascist 1
neville 1
exceeded 1
upwards 1
viable 1
ducks 1
##fo 1
workforce 1
racer 1
limiting 1
shri 1
##lson 1
possesses 1
1600 1
kerr 1
moths 1
devastating 1
laden 1
disturbing 1
locking 1
##cture 1
gal 1
fearing 1
accreditation 1
flavor 1
aide 1
1870s 1
mountainous 1
##baum 1
melt 1
##ures 1
motel 1
texture 1
servers 1
soda 1
##mb 1
herd 1
##nium 1
erect 1
puzzled 1
hum 1
peggy 1
examinations 1
gould 1
testified 1
geoff 1
ren 1
devised 1
sacks 1
##law 1
denial 1
posters 1
grunted 1
cesar 1
tutor 1
ec 1
gerry 1
offerings 1
byrne 1
falcons 1
combinations 1
ct 1
incoming 1
pardon 1
rocking 1
26th 1
avengers 1
flared 1
mankind 1
seller 1
uttar 1
loch 1
nadia 1
stroking 1
exposing 1
##hd 1
fertile 1
ancestral 1
instituted 1
##has 1
noises 1
prophecy 1
taxation 1
eminent 1
vivid 1
pol 1
##bol 1
dart 1
indirect 1
multimedia 1
notebook 1
upside 1
displaying 1
adrenaline 1
referenced 1
geometric 1
##iving 1
progression 1
##ddy 1
blunt 1
announce 1
##far 1
implementing 1
##lav 1
aggression 1
liaison 1
cooler 1
cares 1
headache 1
plantations 1
gorge 1
dots 1
impulse 1
thickness 1
ashamed 1
averaging 1
kathy 1
obligation 1
precursor 1
137 1
fowler 1
symmetry 1
thee 1
225 1
hears 1
##rai 1
undergoing 1
ads 1
butcher 1
bowler 1
##lip 1
cigarettes 1
subscription 1
goodness 1
##ically 1
browne 1
##hos 1
##tech 1
kyoto 1
donor 1
##erty 1
damaging 1
friction 1
drifting 1
expeditions 1
hardened 1
prostitution 1
152 1
fauna 1
blankets 1
claw 1
tossing 1
snarled 1
butterflies 1
recruits 1
investigative 1
coated 1
healed 1
138 1
communal 1
hai 1
xiii 1
academics 1
boone 1
psychologist 1
restless 1
lahore 1
stephens 1
mba 1
brendan 1
foreigners 1
printer 1
##pc 1
ached 1
explode 1
27th 1
deed 1
scratched 1
dared 1
##pole 1
cardiac 1
1780 1
okinawa 1
proto 1
commando 1
compelled 1
oddly 1
electrons 1
##base 1
replica 1
thanksgiving 1
##rist 1
sheila 1
deliberate 1
stafford 1
tidal 1
representations 1
hercules 1
ou 1
##path 1
##iated 1
kidnapping 1
lenses 1
##tling 1
deficit 1
samoa 1
mouths 1
consuming 1
computational 1
maze 1
granting 1
smirk 1
razor 1
fixture 1
ideals 1
inviting 1
aiden 1
nominal 1
##vs 1
issuing 1
julio 1
pitt 1
ramsey 1
docks 1
##oss 1
exhaust 1
##owed 1
bavarian 1
draped 1
anterior 1
mating 1
ethiopian 1
explores 1
noticing 1
##nton 1
discarded 1
convenience 1
hoffman 1
endowment 1
beasts 1
cartridge 1
mormon 1
paternal 1
probe 1
sleeves 1
interfere 1
lump 1
deadline 1
##rail 1
jenks 1
bulldogs 1
scrap 1
alternating 1
justified 1
reproductive 1
nam 1
seize 1
descending 1
secretariat 1
kirby 1
coupe 1
grouped 1
smash 1
panther 1
sedan 1
tapping 1
##18 1
lola 1
cheer 1
germanic 1
unfortunate 1
##eter 1
unrelated 1
##fan 1
subordinate 1
##sdale 1
suzanne 1
advertisement 1
##ility 1
horsepower 1
##lda 1
cautiously 1
discourse 1
luigi 1
##mans 1
##fields 1
noun 1
prevalent 1
mao 1
schneider 1
everett 1
surround 1
governorate 1
kira 1
##avia 1
westward 1
##take 1
misty 1
rails 1
sustainability 1
134 1
unused 1
##rating 1
packs 1
toast 1
unwilling 1
regulate 1
thy 1
suffrage 1
nile 1
awe 1
assam 1
definitions 1
travelers 1
affordable 1
##rb 1
conferred 1
sells 1
undefeated 1
beneficial 1
torso 1
basal 1
repeating 1
remixes 1
##pass 1
bahrain 1
cables 1
fang 1
##itated 1
excavated 1
numbering 1
statutory 1
##rey 1
deluxe 1
##lian 1
forested 1
ramirez 1
derbyshire 1
zeus 1
slamming 1
transfers 1
astronomer 1
banana 1
lottery 1
berg 1
histories 1
bamboo 1
##uchi 1
resurrection 1
posterior 1
bowls 1
vaguely 1
##thi 1
thou 1
preserving 1
tensed 1
offence 1
##inas 1
meyrick 1
callum 1
ridden 1
watt 1
langdon 1
tying 1
lowland 1
snorted 1
daring 1
truman 1
##hale 1
##girl 1
aura 1
overly 1
filing 1
weighing 1
goa 1
infections 1
philanthropist 1
saunders 1
eponymous 1
##owski 1
latitude 1
perspectives 1
reviewing 1
mets 1
commandant 1
radial 1
##kha 1
flashlight 1
reliability 1
koch 1
vowels 1
amazed 1
ada 1
elaine 1
supper 1
##rth 1
##encies 1
predator 1
debated 1
soviets 1
cola 1
##boards 1
##nah 1
compartment 1
crooked 1
arbitrary 1
fourteenth 1
##ctive 1
havana 1
majors 1
steelers 1
clips 1
profitable 1
ambush 1
exited 1
packers 1
##tile 1
nude 1
cracks 1
fungi 1
##е 1
limb 1
trousers 1
josie 1
shelby 1
tens 1
frederic 1
##ος 1
definite 1
smoothly 1
constellation 1
insult 1
baton 1
discs 1
lingering 1
##nco 1
conclusions 1
lent 1
staging 1
becker 1
grandpa 1
shaky 1
##tron 1
einstein 1
obstacles 1
sk 1
adverse 1
elle 1
economically 1
##moto 1
mccartney 1
thor 1
dismissal 1
motions 1
readings 1
nostrils 1
treatise 1
##pace 1
squeezing 1
evidently 1
prolonged 1
1783 1
venezuelan 1
je 1
marguerite 1
beirut 1
takeover 1
shareholders 1
##vent 1
denise 1
digit 1
airplay 1
norse 1
##bbling 1
imaginary 1
pills 1
hubert 1
blaze 1
vacated 1
eliminating 1
##ello 1
vine 1
mansfield 1
##tty 1
retrospective 1
barrow 1
borne 1
clutch 1
bail 1
forensic 1
weaving 1
##nett 1
##witz 1
desktop 1
citadel 1
promotions 1
worrying 1
dorset 1
ieee 1
subdivided 1
##iating 1
manned 1
expeditionary 1
pickup 1
synod 1
chuckle 1
185 1
barney 1
##rz 1
##ffin 1
functionality 1
karachi 1
litigation 1
meanings 1
uc 1
lick 1
turbo 1
anders 1
##ffed 1
execute 1
curl 1
oppose 1
ankles 1
typhoon 1
##د 1
##ache 1
##asia 1
linguistics 1
compassion 1
pressures 1
grazing 1
perfection 1
##iting 1
immunity 1
monopoly 1
muddy 1
backgrounds 1
136 1
namibia 1
francesca 1
monitors 1
attracting 1
stunt 1
tuition 1
##ии 1
vegetable 1
##mates 1
##quent 1
mgm 1
jen 1
complexes 1
forts 1
##ond 1
cellar 1
bites 1
seventeenth 1
royals 1
flemish 1
failures 1
mast 1
charities 1
##cular 1
peruvian 1
capitals 1
macmillan 1
ipswich 1
outward 1
frigate 1
postgraduate 1
folds 1
employing 1
##ouse 1
concurrently 1
fiery 1
##tai 1
contingent 1
nightmares 1
monumental 1
nicaragua 1
##kowski 1
lizard 1
mal 1
fielding 1
gig 1
reject 1
##pad 1
harding 1
##ipe 1
coastline 1
##cin 1
##nos 1
beethoven 1
humphrey 1
innovations 1
##tam 1
##nge 1
norris 1
doris 1
solicitor 1
huang 1
obey 1
141 1
##lc 1
niagara 1
##tton 1
shelves 1
aug 1
bourbon 1
curry 1
nightclub 1
specifications 1
hilton 1
##ndo 1
centennial 1
dispersed 1
worm 1
neglected 1
briggs 1
sm 1
font 1
kuala 1
uneasy 1
plc 1
##nstein 1
##bound 1
##aking 1
##burgh 1
awaiting 1
pronunciation 1
##bbed 1
##quest 1
eh 1
optimal 1
zhu 1
raped 1
greens 1
presided 1
brenda 1
worries 1
##life 1
venetian 1
marxist 1
turnout 1
##lius 1
refined 1
braced 1
sins 1
grasped 1
sunderland 1
nickel 1
speculated 1
lowell 1
cyrillic 1
communism 1
fundraising 1
resembling 1
colonists 1
mutant 1
freddie 1
usc 1
##mos 1
gratitude 1
##run 1
mural 1
##lous 1
chemist 1
wi 1
reminds 1
28th 1
steals 1
tess 1
pietro 1
##ingen 1
promoter 1
ri 1
microphone 1
honoured 1
rai 1
sant 1
##qui 1
feather 1
##nson 1
burlington 1
kurdish 1
terrorists 1
deborah 1
sickness 1
##wed 1
##eet 1
hazard 1
irritated 1
desperation 1
veil 1
clarity 1
##rik 1
jewels 1
xv 1
##gged 1
##ows 1
##cup 1
berkshire 1
unfair 1
mysteries 1
orchid 1
winced 1
exhaustion 1
renovations 1
stranded 1
obe 1
infinity 1
##nies 1
adapt 1
redevelopment 1
thanked 1
registry 1
olga 1
domingo 1
noir 1
tudor 1
ole 1
##atus 1
commenting 1
behaviors 1
##ais 1
crisp 1
pauline 1
probable 1
stirling 1
wigan 1
##bian 1
paralympics 1
panting 1
surpassed 1
##rew 1
luca 1
barred 1
pony 1
famed 1
##sters 1
cassandra 1
waiter 1
carolyn 1
exported 1
##orted 1
andres 1
destructive 1
deeds 1
jonah 1
castles 1
vacancy 1
suv 1
##glass 1
1788 1
orchard 1
yep 1
famine 1
belarusian 1
sprang 1
##forth 1
skinny 1
##mis 1
administrators 1
rotterdam 1
zambia 1
zhao 1
boiler 1
discoveries 1
##ride 1
##physics 1
lucius 1
disappointing 1
outreach 1
spoon 1
##frame 1
qualifications 1
unanimously 1
enjoys 1
regency 1
##iidae 1
stade 1
realism 1
veterinary 1
rodgers 1
dump 1
alain 1
chestnut 1
castile 1
censorship 1
rumble 1
gibbs 1
##itor 1
communion 1
reggae 1
inactivated 1
logs 1
loads 1
##houses 1
homosexual 1
##iano 1
ale 1
informs 1
##cas 1
phrases 1
plaster 1
linebacker 1
ambrose 1
kaiser 1
fascinated 1
850 1
limerick 1
recruitment 1
forge 1
mastered 1
##nding 1
leinster 1
rooted 1
threaten 1
##strom 1
borneo 1
##hes 1
suggestions 1
scholarships 1
propeller 1
documentaries 1
patronage 1
coats 1
constructing 1
invest 1
neurons 1
comet 1
entirety 1
shouts 1
identities 1
annoying 1
unchanged 1
wary 1
##antly 1
##ogy 1
neat 1
oversight 1
##kos 1
phillies 1
replay 1
constance 1
##kka 1
incarnation 1
humble 1
skies 1
minus 1
##acy 1
smithsonian 1
##chel 1
guerrilla 1
jar 1
cadets 1
##plate 1
surplus 1
audit 1
##aru 1
cracking 1
joanna 1
louisa 1
pacing 1
##lights 1
intentionally 1
##iri 1
diner 1
nwa 1
imprint 1
australians 1
tong 1
unprecedented 1
bunker 1
naive 1
specialists 1
ark 1
nichols 1
railing 1
leaked 1
pedal 1
##uka 1
shrub 1
longing 1
roofs 1
v8 1
captains 1
neural 1
tuned 1
##ntal 1
##jet 1
emission 1
medina 1
frantic 1
codex 1
definitive 1
sid 1
abolition 1
intensified 1
stocks 1
enrique 1
sustain 1
genoa 1
oxide 1
##written 1
clues 1
cha 1
##gers 1
tributaries 1
fragment 1
venom 1
##rity 1
##ente 1
##sca 1
muffled 1
vain 1
sire 1
laos 1
##ingly 1
##hana 1
hastily 1
snapping 1
surfaced 1
sentiment 1
motive 1
##oft 1
contests 1
approximate 1
mesa 1
luckily 1
dinosaur 1
exchanges 1
propelled 1
accord 1
bourne 1
relieve 1
tow 1
masks 1
offended 1
##ues 1
cynthia 1
##mmer 1
rains 1
bartender 1
zinc 1
reviewers 1
lois 1
##sai 1
legged 1
arrogant 1
rafe 1
rosie 1
comprise 1
handicap 1
blockade 1
inlet 1
lagoon 1
copied 1
drilling 1
shelley 1
petals 1
##inian 1
mandarin 1
obsolete 1
##inated 1
onward 1
arguably 1
productivity 1
cindy 1
praising 1
seldom 1
busch 1
discusses 1
raleigh 1
shortage 1
ranged 1
stanton 1
encouragement 1
firstly 1
conceded 1
overs 1
temporal 1
##uke 1
cbe 1
##bos 1
woo 1
certainty 1
pumps 1
##pton 1
stalked 1
##uli 1
lizzie 1
periodic 1
thieves 1
weaker 1
##night 1
gases 1
shoving 1
chooses 1
wc 1
##chemical 1
prompting 1
weights 1
##kill 1
robust 1
flanked 1
sticky 1
hu 1
tuberculosis 1
##eb 1
##eal 1
christchurch 1
resembled 1
wallet 1
reese 1
inappropriate 1
pictured 1
distract 1
fixing 1
fiddle 1
giggled 1
burger 1
heirs 1
hairy 1
mechanic 1
torque 1
apache 1
obsessed 1
chiefly 1
cheng 1
logging 1
##tag 1
extracted 1
meaningful 1
numb 1
##vsky 1
gloucestershire 1
reminding 1
##bay 1
unite 1
##lit 1
breeds 1
diminished 1
clown 1
glove 1
1860s 1
##ن 1
##ug 1
archibald 1
focal 1
freelance 1
sliced 1
depiction 1
##yk 1
organism 1
switches 1
sights 1
stray 1
crawling 1
##ril 1
lever 1
leningrad 1
interpretations 1
loops 1
anytime 1
reel 1
alicia 1
delighted 1
##ech 1
inhaled 1
xiv 1
suitcase 1
bernie 1
vega 1
licenses 1
northampton 1
exclusion 1
induction 1
monasteries 1
racecourse 1
homosexuality 1
##right 1
##sfield 1
##rky 1
dimitri 1
michele 1
alternatives 1
ions 1
commentators 1
genuinely 1
objected 1
pork 1
hospitality 1
fencing 1
stephan 1
warships 1
peripheral 1
wit 1
drunken 1
wrinkled 1
quentin 1
spends 1
departing 1
chung 1
numerical 1
spokesperson 1
##zone 1
johannesburg 1
caliber 1
killers 1
##udge 1
assumes 1
neatly 1
demographic 1
abigail 1
bloc 1
##vel 1
mounting 1
##lain 1
bentley 1
slightest 1
xu 1
recipients 1
##jk 1
merlin 1
##writer 1
seniors 1
prisons 1
blinking 1
hindwings 1
flickered 1
kappa 1
##hel 1
80s 1
strengthening 1
appealing 1
brewing 1
gypsy 1
mali 1
lashes 1
hulk 1
unpleasant 1
harassment 1
bio 1
treaties 1
predict 1
instrumentation 1
pulp 1
troupe 1
boiling 1
mantle 1
##ffe 1
ins 1
##vn 1
dividing 1
handles 1
verbs 1
##onal 1
coconut 1
senegal 1
340 1
thorough 1
gum 1
momentarily 1
##sto 1
cocaine 1
panicked 1
destined 1
##turing 1
teatro 1
denying 1
weary 1
captained 1
mans 1
##hawks 1
##code 1
wakefield 1
bollywood 1
thankfully 1
##16 1
cyril 1
##wu 1
amendments 1
##bahn 1
consultation 1
stud 1
reflections 1
kindness 1
1787 1
internally 1
##ovo 1
tex 1
mosaic 1
distribute 1
paddy 1
seeming 1
143 1
##hic 1
piers 1
##15 1
##mura 1
##verse 1
popularly 1
winger 1
kang 1
sentinel 1
mccoy 1
##anza 1
covenant 1
##bag 1
verge 1
fireworks 1
suppress 1
thrilled 1
dominate 1
##jar 1
swansea 1
##60 1
142 1
reconciliation 1
##ndi 1
stiffened 1
cue 1
dorian 1
##uf 1
damascus 1
amor 1
ida 1
foremost 1
##aga 1
porsche 1
unseen 1
dir 1
##had 1
##azi 1
stony 1
lexi 1
melodies 1
##nko 1
angular 1
integer 1
podcast 1
ants 1
inherent 1
jaws 1
justify 1
persona 1
##olved 1
josephine 1
##nr 1
##ressed 1
customary 1
flashes 1
gala 1
cyrus 1
glaring 1
backyard 1
ariel 1
physiology 1
greenland 1
html 1
stir 1
avon 1
atletico 1
finch 1
methodology 1
ked 1
##lent 1
mas 1
catholicism 1
townsend 1
branding 1
quincy 1
fits 1
containers 1
1777 1
ashore 1
aragon 1
##19 1
forearm 1
poisoning 1
##sd 1
adopting 1
conquer 1
grinding 1
amnesty 1
keller 1
finances 1
evaluate 1
forged 1
lankan 1
instincts 1
##uto 1
guam 1
bosnian 1
photographed 1
workplace 1
desirable 1
protector 1
##dog 1
allocation 1
intently 1
encourages 1
willy 1
##sten 1
bodyguard 1
electro 1
brighter 1
##ν 1
bihar 1
##chev 1
lasts 1
opener 1
amphibious 1
sal 1
verde 1
arte 1
##cope 1
captivity 1
vocabulary 1
yields 1
##tted 1
agreeing 1
desmond 1
pioneered 1
##chus 1
strap 1
campaigned 1
railroads 1
##ович 1
emblem 1
##dre 1
stormed 1
501 1
##ulous 1
marijuana 1
northumberland 1
##gn 1
##nath 1
bowen 1
landmarks 1
beaumont 1
##qua 1
danube 1
##bler 1
attorneys 1
th 1
ge 1
flyers 1
critique 1
villains 1
cass 1
mutation 1
acc 1
##0s 1
colombo 1
mckay 1
motif 1
sampling 1
concluding 1
syndicate 1
##rell 1
neon 1
stables 1
ds 1
warnings 1
clint 1
mourning 1
wilkinson 1
##tated 1
merrill 1
leopard 1
evenings 1
exhaled 1
emil 1
sonia 1
ezra 1
discrete 1
stove 1
farrell 1
fifteenth 1
prescribed 1
superhero 1
##rier 1
worms 1
helm 1
wren 1
##duction 1
##hc 1
expo 1
##rator 1
hq 1
unfamiliar 1
antony 1
prevents 1
acceleration 1
fiercely 1
mari 1
painfully 1
calculations 1
cheaper 1
ign 1
clifton 1
irvine 1
davenport 1
mozambique 1
##np 1
pierced 1
##evich 1
wonders 1
##wig 1
##cate 1
##iling 1
crusade 1
ware 1
##uel 1
enzymes 1
reasonably 1
mls 1
##coe 1
mater 1
ambition 1
bunny 1
eliot 1
kernel 1
##fin 1
asphalt 1
headmaster 1
torah 1
aden 1
lush 1
pins 1
waived 1
##care 1
##yas 1
joao 1
substrate 1
enforce 1
##grad 1
##ules 1
alvarez 1
selections 1
epidemic 1
tempted 1
##bit 1
bremen 1
translates 1
ensured 1
waterfront 1
29th 1
forrest 1
manny 1
malone 1
kramer 1
reigning 1
cookies 1
simpler 1
absorption 1
205 1
engraved 1
##ffy 1
evaluated 1
1778 1
haze 1
146 1
comforting 1
crossover 1
##abe 1
thorn 1
##rift 1
##imo 1
##pop 1
suppression 1
fatigue 1
cutter 1
##tr 1
201 1
wurttemberg 1
##orf 1
enforced 1
hovering 1
proprietary 1
gb 1
samurai 1
syllable 1
ascent 1
lacey 1
tick 1
lars 1
tractor 1
merchandise 1
rep 1
bouncing 1
defendants 1
##yre 1
huntington 1
##ground 1
##oko 1
standardized 1
##hor 1
##hima 1
assassinated 1
nu 1
predecessors 1
rainy 1
liar 1
assurance 1
lyrical 1
##uga 1
secondly 1
flattened 1
ios 1
parameter 1
undercover 1
##mity 1
bordeaux 1
punish 1
ridges 1
markers 1
exodus 1
inactive 1
hesitate 1
debbie 1
nyc 1
pledge 1
savoy 1
nagar 1
offset 1
organist 1
##tium 1
hesse 1
marin 1
converting 1
##iver 1
diagram 1
propulsion 1
pu 1
validity 1
reverted 1
supportive 1
##dc 1
ministries 1
clans 1
responds 1
proclamation 1
##inae 1
##ø 1
##rea 1
ein 1
pleading 1
patriot 1
sf 1
birch 1
islanders 1
strauss 1
hates 1
##dh 1
brandenburg 1
concession 1
rd 1
##ob 1
1900s 1
killings 1
textbook 1
antiquity 1
cinematography 1
wharf 1
embarrassing 1
setup 1
creed 1
farmland 1
inequality 1
centred 1
signatures 1
fallon 1
370 1
##ingham 1
##uts 1
ceylon 1
gazing 1
directive 1
laurie 1
##tern 1
globally 1
##uated 1
##dent 1
allah 1
excavation 1
threads 1
##cross 1
148 1
frantically 1
icc 1
utilize 1
determines 1
respiratory 1
thoughtful 1
receptions 1
##dicate 1
merging 1
chandra 1
seine 1
147 1
builders 1
builds 1
diagnostic 1
dev 1
visibility 1
goddamn 1
analyses 1
dhaka 1
cho 1
proves 1
chancel 1
concurrent 1
curiously 1
canadians 1
pumped 1
restoring 1
1850s 1
turtles 1
jaguar 1
sinister 1
spinal 1
traction 1
declan 1
vows 1
1784 1
glowed 1
capitalism 1
swirling 1
install 1
universidad 1
##lder 1
##oat 1
soloist 1
##genic 1
##oor 1
coincidence 1
beginnings 1
nissan 1
dip 1
resorts 1
caucasus 1
combustion 1
infectious 1
##eno 1
pigeon 1
serpent 1
##itating 1
conclude 1
masked 1
salad 1
jew 1
##gr 1
surreal 1
toni 1
##wc 1
harmonica 1
151 1
##gins 1
##etic 1
##coat 1
fishermen 1
intending 1
bravery 1
##wave 1
klaus 1
titan 1
wembley 1
taiwanese 1
ransom 1
40th 1
incorrect 1
hussein 1
eyelids 1
jp 1
cooke 1
dramas 1
utilities 1
##etta 1
##print 1
eisenhower 1
principally 1
granada 1
lana 1
##rak 1
openings 1
concord 1
##bl 1
bethany 1
connie 1
morality 1
sega 1
##mons 1
##nard 1
earnings 1
##kara 1
##cine 1
wii 1
communes 1
##rel 1
coma 1
composing 1
softened 1
severed 1
grapes 1
##17 1
nguyen 1
analyzed 1
warlord 1
hubbard 1
heavenly 1
behave 1
slovenian 1
##hit 1
##ony 1
hailed 1
filmmakers 1
trance 1
caldwell 1
skye 1
unrest 1
coward 1
likelihood 1
##aging 1
bern 1
sci 1
taliban 1
honolulu 1
propose 1
##wang 1
1700 1
browser 1
imagining 1
cobra 1
contributes 1
dukes 1
instinctively 1
conan 1
violinist 1
##ores 1
accessories 1
gradual 1
##amp 1
quotes 1
sioux 1
##dating 1
undertake 1
intercepted 1
sparkling 1
compressed 1
139 1
fungus 1
tombs 1
haley 1
imposing 1
rests 1
degradation 1
lincolnshire 1
retailers 1
wetlands 1
tulsa 1
distributor 1
dungeon 1
nun 1
greenhouse 1
convey 1
atlantis 1
aft 1
exits 1
oman 1
dresser 1
lyons 1
##sti 1
joking 1
eddy 1
judgement 1
omitted 1
digits 1
##cts 1
##game 1
juniors 1
##rae 1
cents 1
stricken 1
une 1
##ngo 1
wizards 1
weir 1
breton 1
nan 1
technician 1
fibers 1
liking 1
royalty 1
##cca 1
154 1
persia 1
terribly 1
magician 1
##rable 1
##unt 1
vance 1
cafeteria 1
booker 1
camille 1
warmer 1
##static 1
consume 1
cavern 1
gaps 1
compass 1
contemporaries 1
foyer 1
soothing 1
graveyard 1
maj 1
plunged 1
blush 1
##wear 1
cascade 1
demonstrates 1
ordinance 1
##nov 1
boyle 1
##lana 1
rockefeller 1
shaken 1
banjo 1
izzy 1
##ense 1
breathless 1
vines 1
##32 1
##eman 1
alterations 1
chromosome 1
dwellings 1
feudal 1
mole 1
153 1
catalonia 1
relics 1
tenant 1
mandated 1
##fm 1
fridge 1
hats 1
honesty 1
patented 1
raul 1
heap 1
cruisers 1
accusing 1
enlightenment 1
infants 1
wherein 1
chatham 1
contractors 1
zen 1
affinity 1
hc 1
osborne 1
piston 1
156 1
traps 1
maturity 1
##rana 1
lagos 1
##zal 1
peering 1
##nay 1
attendant 1
dealers 1
protocols 1
subset 1
prospects 1
biographical 1
##cre 1
artery 1
##zers 1
insignia 1
nuns 1
endured 1
##eration 1
recommend 1
schwartz 1
serbs 1
berger 1
cromwell 1
crossroads 1
##ctor 1
enduring 1
clasped 1
grounded 1
##bine 1
marseille 1
twitched 1
abel 1
choke 1
https 1
catalyst 1
moldova 1
italians 1
##tist 1
disastrous 1
wee 1
##oured 1
##nti 1
wwf 1
nope 1
##piration 1
##asa 1
expresses 1
thumbs 1
167 1
##nza 1
coca 1
1781 1
cheating 1
##ption 1
skipped 1
sensory 1
heidelberg 1
spies 1
satan 1
dangers 1
semifinal 1
202 1
bohemia 1
whitish 1
confusing 1
shipbuilding 1
relies 1
surgeons 1
landings 1
ravi 1
baku 1
moor 1
suffix 1
alejandro 1
##yana 1
litre 1
upheld 1
##unk 1
rajasthan 1
##rek 1
coaster 1
insists 1
posture 1
scenarios 1
etienne 1
favoured 1
appoint 1
transgender 1
elephants 1
poked 1
greenwood 1
defences 1
fulfilled 1
militant 1
somali 1
1758 1
chalk 1
potent 1
##ucci 1
migrants 1
wink 1
assistants 1
nos 1
restriction 1
activism 1
niger 1
##ario 1
colon 1
shaun 1
##sat 1
daphne 1
##erated 1
swam 1
congregations 1
reprise 1
considerations 1
magnet 1
playable 1
xvi 1
##р 1
overthrow 1
tobias 1
knob 1
chavez 1
coding 1
##mers 1
propped 1
katrina 1
orient 1
newcomer 1
##suke 1
temperate 1
##pool 1
farmhouse 1
interrogation 1
##vd 1
committing 1
##vert 1
forthcoming 1
strawberry 1
joaquin 1
macau 1
ponds 1
shocking 1
siberia 1
##cellular 1
chant 1
contributors 1
##nant 1
##ologists 1
sped 1
absorb 1
hail 1
1782 1
spared 1
##hore 1
barbados 1
karate 1
opus 1
originates 1
saul 1
##xie 1
evergreen 1
leaped 1
##rock 1
correlation 1
exaggerated 1
weekday 1
unification 1
bump 1
tracing 1
brig 1
afb 1
pathways 1
utilizing 1
##ners 1
mod 1
mb 1
disturbance 1
kneeling 1
##stad 1
##guchi 1
100th 1
pune 1
##thy 1
decreasing 1
168 1
manipulation 1
miriam 1
academia 1
ecosystem 1
occupational 1
rbi 1
##lem 1
rift 1
##14 1
rotary 1
stacked 1
incorporation 1
awakening 1
generators 1
guerrero 1
racist 1
##omy 1
cyber 1
derivatives 1
culminated 1
allie 1
annals 1
panzer 1
sainte 1
wikipedia 1
pops 1
zu 1
austro 1
##vate 1
algerian 1
politely 1
nicholson 1
mornings 1
educate 1
tastes 1
thrill 1
dartmouth 1
##gating 1
db 1
##jee 1
regan 1
differing 1
concentrating 1
choreography 1
divinity 1
##media 1
pledged 1
alexandre 1
routing 1
gregor 1
madeline 1
##idal 1
apocalypse 1
##hora 1
gunfire 1
culminating 1
elves 1
fined 1
liang 1
lam 1
programmed 1
tar 1
guessing 1
transparency 1
gabrielle 1
##gna 1
cancellation 1
flexibility 1
##lining 1
accession 1
shea 1
stronghold 1
nets 1
specializes 1
##rgan 1
abused 1
hasan 1
sgt 1
ling 1
exceeding 1
##₄ 1
admiration 1
supermarket 1
##ark 1
photographers 1
specialised 1
tilt 1
resonance 1
hmm 1
perfume 1
380 1
sami 1
threatens 1
garland 1
botany 1
guarding 1
boiled 1
greet 1
puppy 1
russo 1
supplier 1
wilmington 1
vibrant 1
vijay 1
##bius 1
paralympic 1
grumbled 1
paige 1
faa 1
licking 1
margins 1
hurricanes 1
##gong 1
fest 1
grenade 1
ripping 1
##uz 1
counseling 1
weigh 1
##sian 1
needles 1
wiltshire 1
edison 1
costly 1
##not 1
fulton 1
tramway 1
redesigned 1
staffordshire 1
cache 1
gasping 1
watkins 1
sleepy 1
candidacy 1
##group 1
monkeys 1
timeline 1
throbbing 1
##bid 1
##sos 1
berth 1
uzbekistan 1
vanderbilt 1
bothering 1
overturned 1
ballots 1
gem 1
##iger 1
sunglasses 1
subscribers 1
hooker 1
compelling 1
ang 1
exceptionally 1
saloon 1
stab 1
##rdi 1
carla 1
terrifying 1
rom 1
##vision 1
coil 1
##oids 1
satisfying 1
vendors 1
31st 1
mackay 1
deities 1
overlooked 1
ambient 1
bahamas 1
felipe 1
olympia 1
whirled 1
botanist 1
advertised 1
tugging 1
##dden 1
disciples 1
morales 1
unionist 1
rites 1
foley 1
morse 1
motives 1
creepy 1
##₀ 1
soo 1
##sz 1
bargain 1
highness 1
frightening 1
turnpike 1
tory 1
reorganization 1
##cer 1
depict 1
biographer 1
##walk 1
unopposed 1
manifesto 1
##gles 1
institut 1
emile 1
accidental 1
kapoor 1
##dam 1
kilkenny 1
cortex 1
lively 1
##13 1
romanesque 1
jain 1
shan 1
cannons 1
##ood 1
##ske 1
petrol 1
echoing 1
amalgamated 1
disappears 1
cautious 1
proposes 1
sanctions 1
trenton 1
##ر 1
flotilla 1
aus 1
contempt 1
tor 1
canary 1
cote 1
theirs 1
##hun 1
conceptual 1
deleted 1
fascinating 1
paso 1
blazing 1
elf 1
honourable 1
hutchinson 1
##eiro 1
##outh 1
##zin 1
surveyor 1
tee 1
amidst 1
wooded 1
reissue 1
intro 1
##ono 1
cobb 1
shelters 1
newsletter 1
hanson 1
brace 1
encoding 1
confiscated 1
dem 1
caravan 1
marino 1
scroll 1
melodic 1
cows 1
imam 1
##adi 1
##aneous 1
northward 1
searches 1
biodiversity 1
cora 1
310 1
roaring 1
##bers 1
connell 1
theologian 1
halo 1
compose 1
pathetic 1
unmarried 1
dynamo 1
##oot 1
az 1
calculation 1
toulouse 1
deserves 1
humour 1
nr 1
forgiveness 1
tam 1
undergone 1
martyr 1
pamela 1
myths 1
whore 1
counselor 1
hicks 1
290 1
heavens 1
battleship 1
electromagnetic 1
##bbs 1
stellar 1
establishments 1
presley 1
hopped 1
##chin 1
temptation 1
90s 1
wills 1
nas 1
##yuan 1
nhs 1
##nya 1
seminars 1
##yev 1
adaptations 1
gong 1
asher 1
lex 1
indicator 1
sikh 1
tobago 1
cites 1
goin 1
##yte 1
satirical 1
##gies 1
characterised 1
correspond 1
bubbles 1
lure 1
participates 1
##vid 1
eruption 1
skate 1
therapeutic 1
1785 1
canals 1
wholesale 1
defaulted 1
sac 1
460 1
petit 1
##zzled 1
virgil 1
leak 1
ravens 1
256 1
portraying 1
##yx 1
ghetto 1
creators 1
dams 1
portray 1
vicente 1
##rington 1
fae 1
namesake 1
bounty 1
##arium 1
joachim 1
##ota 1
##iser 1
aforementioned 1
axle 1
snout 1
depended 1
dismantled 1
reuben 1
480 1
##ibly 1
gallagher 1
##lau 1
##pd 1
earnest 1
##ieu 1
##iary 1
inflicted 1
objections 1
##llar 1
asa 1
gritted 1
##athy 1
jericho 1
##sea 1
##was 1
flick 1
underside 1
ceramics 1
undead 1
substituted 1
195 1
eastward 1
undoubtedly 1
wheeled 1
chimney 1
##iche 1
guinness 1
cb 1
##ager 1
siding 1
##bell 1
traitor 1
baptiste 1
disguised 1
inauguration 1
149 1
tipperary 1
choreographer 1
perched 1
warmed 1
stationary 1
eco 1
##ike 1
##ntes 1
bacterial 1
##aurus 1
flores 1
phosphate 1
##core 1
attacker 1
invaders 1
alvin 1
intersects 1
a1 1
indirectly 1
immigrated 1
businessmen 1
cornelius 1
valves 1
narrated 1
pill 1
sober 1
ul 1
nationale 1
monastic 1
applicants 1
scenery 1
##jack 1
161 1
motifs 1
constitutes 1
cpu 1
##osh 1
jurisdictions 1
sd 1
tuning 1
irritation 1
woven 1
##uddin 1
fertility 1
gao 1
##erie 1
antagonist 1
impatient 1
glacial 1
hides 1
boarded 1
denominations 1
interception 1
##jas 1
cookie 1
nicola 1
##tee 1
algebraic 1
marquess 1
bahn 1
parole 1
buyers 1
bait 1
turbines 1
paperwork 1
bestowed 1
natasha 1
renee 1
oceans 1
purchases 1
157 1
vaccine 1
215 1
##tock 1
fixtures 1
playhouse 1
integrate 1
jai 1
oswald 1
intellectuals 1
##cky 1
booked 1
nests 1
mortimer 1
##isi 1
obsession 1
sept 1
##gler 1
##sum 1
440 1
scrutiny 1
simultaneous 1
squinted 1
##shin 1
collects 1
oven 1
shankar 1
penned 1
remarkably 1
##я 1
slips 1
luggage 1
spectral 1
1786 1
collaborations 1
louie 1
consolidation 1
##ailed 1
##ivating 1
420 1
hoover 1
blackpool 1
harness 1
ignition 1
vest 1
tails 1
belmont 1
mongol 1
skinner 1
##nae 1
visually 1
mage 1
derry 1
##tism 1
##unce 1
stevie 1
transitional 1
##rdy 1
redskins 1
drying 1
prep 1
prospective 1
##21 1
annoyance 1
oversee 1
##loaded 1
fills 1
##books 1
##iki 1
announces 1
fda 1
scowled 1
respects 1
prasad 1
mystic 1
tucson 1
##vale 1
revue 1
springer 1
bankrupt 1
1772 1
aristotle 1
salvatore 1
habsburg 1
##geny 1
dal 1
natal 1
nut 1
pod 1
chewing 1
darts 1
moroccan 1
walkover 1
rosario 1
lenin 1
punjabi 1
##ße 1
grossed 1
scattering 1
wired 1
invasive 1
hui 1
polynomial 1
corridors 1
wakes 1
gina 1
portrays 1
##cratic 1
arid 1
retreating 1
erich 1
irwin 1
sniper 1
##dha 1
linen 1
lindsey 1
maneuver 1
butch 1
shutting 1
socio 1
bounce 1
commemorative 1
postseason 1
jeremiah 1
pines 1
275 1
mystical 1
beads 1
bp 1
abbas 1
furnace 1
bidding 1
consulted 1
assaulted 1
empirical 1
rubble 1
enclosure 1
sob 1
weakly 1
cancel 1
polly 1
yielded 1
##emann 1
curly 1
prediction 1
battered 1
70s 1
vhs 1
jacqueline 1
render 1
sails 1
barked 1
detailing 1
grayson 1
riga 1
sloane 1
raging 1
##yah 1
herbs 1
bravo 1
##athlon 1
alloy 1
giggle 1
imminent 1
suffers 1
assumptions 1
waltz 1
##itate 1
accomplishments 1
##ited 1
bathing 1
remixed 1
deception 1
prefix 1
##emia 1
deepest 1
##tier 1
##eis 1
balkan 1
frogs 1
##rong 1
slab 1
##pate 1
philosophers 1
peterborough 1
grains 1
imports 1
dickinson 1
rwanda 1
##atics 1
1774 1
dirk 1
lan 1
tablets 1
##rove 1
clone 1
##rice 1
caretaker 1
hostilities 1
mclean 1
##gre 1
regimental 1
treasures 1
norms 1
impose 1
tsar 1
tango 1
diplomacy 1
variously 1
complain 1
192 1
recognise 1
arrests 1
1779 1
celestial 1
pulitzer 1
##dus 1
bing 1
libretto 1
##moor 1
adele 1
splash 1
##rite 1
expectation 1
lds 1
confronts 1
##izer 1
spontaneous 1
harmful 1
wedge 1
entrepreneurs 1
buyer 1
##ope 1
bilingual 1
translate 1
rugged 1
conner 1
circulated 1
uae 1
eaton 1
##gra 1
##zzle 1
lingered 1
lockheed 1
vishnu 1
reelection 1
alonso 1
##oom 1
joints 1
yankee 1
headline 1
cooperate 1
heinz 1
laureate 1
invading 1
##sford 1
echoes 1
scandinavian 1
##dham 1
hugging 1
vitamin 1
salute 1
micah 1
hind 1
trader 1
##sper 1
radioactive 1
##ndra 1
militants 1
poisoned 1
ratified 1
remark 1
campeonato 1
deprived 1
wander 1
prop 1
##dong 1
outlook 1
##tani 1
##rix 1
##eye 1
chiang 1
darcy 1
##oping 1
mandolin 1
spice 1
statesman 1
babylon 1
182 1
walled 1
forgetting 1
afro 1
##cap 1
158 1
giorgio 1
buffer 1
##polis 1
planetary 1
##gis 1
overlap 1
terminals 1
kinda 1
centenary 1
##bir 1
arising 1
manipulate 1
elm 1
ke 1
1770 1
ak 1
##tad 1
chrysler 1
mapped 1
moose 1
pomeranian 1
quad 1
macarthur 1
assemblies 1
shoreline 1
recalls 1
stratford 1
##rted 1
noticeable 1
##evic 1
imp 1
##rita 1
##sque 1
accustomed 1
supplying 1
tents 1
disgusted 1
vogue 1
sipped 1
filters 1
khz 1
reno 1
selecting 1
luftwaffe 1
mcmahon 1
tyne 1
masterpiece 1
carriages 1
collided 1
dunes 1
exercised 1
flare 1
remembers 1
muzzle 1
##mobile 1
heck 1
##rson 1
burgess 1
lunged 1
middleton 1
boycott 1
bilateral 1
##sity 1
hazardous 1
lumpur 1
multiplayer 1
spotlight 1
jackets 1
goldman 1
liege 1
porcelain 1
rag 1
waterford 1
benz 1
attracts 1
hopeful 1
battling 1
ottomans 1
kensington 1
baked 1
hymns 1
cheyenne 1
lattice 1
levine 1
borrow 1
polymer 1
clashes 1
michaels 1
monitored 1
commitments 1
denounced 1
##25 1
##von 1
cavity 1
##oney 1
hobby 1
akin 1
##holders 1
futures 1
intricate 1
cornish 1
patty 1
##oned 1
illegally 1
dolphin 1
##lag 1
barlow 1
yellowish 1
maddie 1
apologized 1
luton 1
plagued 1
##puram 1
nana 1
##rds 1
sway 1
fanny 1
łodz 1
##rino 1
psi 1
suspicions 1
hanged 1
##eding 1
initiate 1
charlton 1
##por 1
nak 1
competent 1
235 1
analytical 1
annex 1
wardrobe 1
reservations 1
##rma 1
sect 1
162 1
fairfax 1
hedge 1
piled 1
buckingham 1
uneven 1
bauer 1
simplicity 1
snyder 1
interpret 1
accountability 1
donors 1
moderately 1
byrd 1
continents 1
##cite 1
##max 1
disciple 1
hr 1
jamaican 1
ping 1
nominees 1
##uss 1
mongolian 1
diver 1
attackers 1
eagerly 1
ideological 1
pillows 1
miracles 1
apartheid 1
revolver 1
sulfur 1
clinics 1
moran 1
163 1
##enko 1
ile 1
katy 1
rhetoric 1
##icated 1
chronology 1
recycling 1
##hrer 1
elongated 1
mughal 1
pascal 1
profiles 1
vibration 1
databases 1
domination 1
##fare 1
##rant 1
matthias 1
digest 1
rehearsal 1
polling 1
weiss 1
initiation 1
reeves 1
clinging 1
flourished 1
impress 1
ngo 1
##hoff 1
##ume 1
buckley 1
symposium 1
rhythms 1
weed 1
emphasize 1
transforming 1
##taking 1
##gence 1
##yman 1
accountant 1
analyze 1
flicker 1
foil 1
priesthood 1
voluntarily 1
decreases 1
##80 1
##hya 1
slater 1
sv 1
charting 1
mcgill 1
##lde 1
moreno 1
##iu 1
besieged 1
zur 1
robes 1
##phic 1
admitting 1
api 1
deported 1
turmoil 1
peyton 1
earthquakes 1
##ares 1
nationalists 1
beau 1
clair 1
brethren 1
interrupt 1
welch 1
curated 1
galerie 1
requesting 1
164 1
##ested 1
impending 1
steward 1
viper 1
##vina 1
complaining 1
beautifully 1
brandy 1
foam 1
nl 1
1660 1
##cake 1
alessandro 1
punches 1
laced 1
explanations 1
##lim 1
attribute 1
clit 1
reggie 1
discomfort 1
##cards 1
smoothed 1
whales 1
##cene 1
adler 1
countered 1
duffy 1
disciplinary 1
widening 1
recipe 1
reliance 1
conducts 1
goats 1
gradient 1
preaching 1
##shaw 1
matilda 1
quasi 1
striped 1
meridian 1
cannabis 1
cordoba 1
certificates 1
##agh 1
##tering 1
graffiti 1
hangs 1
pilgrims 1
repeats 1
##ych 1
revive 1
urine 1
etat 1
##hawk 1
fueled 1
belts 1
fuzzy 1
susceptible 1
##hang 1
mauritius 1
salle 1
sincere 1
beers 1
hooks 1
##cki 1
arbitration 1
entrusted 1
advise 1
sniffed 1
seminar 1
junk 1
donnell 1
processors 1
principality 1
strapped 1
celia 1
mendoza 1
everton 1
fortunes 1
prejudice 1
starving 1
reassigned 1
steamer 1
##lund 1
tuck 1
evenly 1
foreman 1
##ffen 1
dans 1
375 1
envisioned 1
slit 1
##xy 1
baseman 1
liberia 1
rosemary 1
##weed 1
electrified 1
periodically 1
potassium 1
stride 1
contexts 1
sperm 1
slade 1
mariners 1
influx 1
bianca 1
subcommittee 1
##rane 1
spilling 1
icao 1
estuary 1
##nock 1
delivers 1
iphone 1
##ulata 1
isa 1
mira 1
bohemian 1
dessert 1
##sbury 1
welcoming 1
proudly 1
slowing 1
##chs 1
musee 1
ascension 1
russ 1
##vian 1
waits 1
##psy 1
africans 1
exploit 1
##morphic 1
gov 1
eccentric 1
crab 1
peck 1
##ull 1
entrances 1
formidable 1
marketplace 1
groom 1
bolted 1
metabolism 1
patton 1
robbins 1
courier 1
payload 1
endure 1
##ifier 1
andes 1
refrigerator 1
##pr 1
ornate 1
##uca 1
ruthless 1
illegitimate 1
masonry 1
strasbourg 1
bikes 1
adobe 1
##³ 1
apples 1
quintet 1
willingly 1
niche 1
bakery 1
corpses 1
energetic 1
##cliffe 1
##sser 1
##ards 1
177 1
centimeters 1
centro 1
fuscous 1
cretaceous 1
rancho 1
##yde 1
andrei 1
telecom 1
tottenham 1
oasis 1
ordination 1
vulnerability 1
presiding 1
corey 1
cp 1
penguins 1
sims 1
##pis 1
malawi 1
piss 1
##48 1
correction 1
##cked 1
##ffle 1
##ryn 1
countdown 1
detectives 1
psychiatrist 1
psychedelic 1
dinosaurs 1
blouse 1
##get 1
choi 1
vowed 1
##oz 1
randomly 1
##pol 1
49ers 1
scrub 1
blanche 1
bruins 1
dusseldorf 1
##using 1
unwanted 1
##ums 1
212 1
dominique 1
elevations 1
headlights 1
om 1
laguna 1
##oga 1
1750 1
famously 1
ignorance 1
shrewsbury 1
##aine 1
ajax 1
breuning 1
che 1
confederacy 1
greco 1
overhaul 1
##screen 1
paz 1
skirts 1
disagreement 1
cruelty 1
jagged 1
phoebe 1
shifter 1
hovered 1
viruses 1
##wes 1
mandy 1
##lined 1
##gc 1
landlord 1
squirrel 1
dashed 1
##ι 1
ornamental 1
gag 1
wally 1
grange 1
literal 1
spurs 1
undisclosed 1
proceeding 1
yin 1
##text 1
billie 1
orphan 1
spanned 1
humidity 1
indy 1
weighted 1
presentations 1
explosions 1
lucian 1
##tary 1
vaughn 1
hindus 1
##anga 1
##hell 1
psycho 1
171 1
daytona 1
protects 1
efficiently 1
rematch 1
sly 1
tandem 1
##oya 1
rebranded 1
impaired 1
hee 1
metropolis 1
peach 1
godfrey 1
diaspora 1
ethnicity 1
prosperous 1
gleaming 1
dar 1
grossing 1
playback 1
##rden 1
stripe 1
pistols 1
##tain 1
births 1
labelled 1
##cating 1
172 1
rudy 1
alba 1
##onne 1
aquarium 1
hostility 1
##gb 1
##tase 1
shudder 1
sumatra 1
hardest 1
lakers 1
consonant 1
creeping 1
demos 1
homicide 1
capsule 1
zeke 1
liberties 1
expulsion 1
pueblo 1
##comb 1
trait 1
transporting 1
##ddin 1
##neck 1
##yna 1
depart 1
gregg 1
mold 1
ledge 1
hangar 1
oldham 1
playboy 1
termination 1
analysts 1
gmbh 1
romero 1
##itic 1
insist 1
cradle 1
filthy 1
brightness 1
slash 1
shootout 1
deposed 1
bordering 1
##truct 1
isis 1
microwave 1
tumbled 1
sheltered 1
cathy 1
werewolves 1
messy 1
andersen 1
convex 1
clapped 1
clinched 1
satire 1
wasting 1
edo 1
vc 1
rufus 1
##jak 1
mont 1
##etti 1
poznan 1
##keeping 1
restructuring 1
transverse 1
##rland 1
azerbaijani 1
slovene 1
gestures 1
roommate 1
choking 1
shear 1
##quist 1
vanguard 1
oblivious 1
##hiro 1
disagreed 1
baptism 1
##lich 1
coliseum 1
##aceae 1
salvage 1
societe 1
cory 1
locke 1
relocation 1
relying 1
versailles 1
ahl 1
swelling 1
##elo 1
cheerful 1
##word 1
##edes 1
gin 1
sarajevo 1
obstacle 1
diverted 1
##nac 1
messed 1
thoroughbred 1
fluttered 1
utrecht 1
chewed 1
acquaintance 1
assassins 1
dispatch 1
mirza 1
##wart 1
nike 1
salzburg 1
swell 1
yen 1
##gee 1
idle 1
ligue 1
samson 1
##nds 1
##igh 1
playful 1
spawned 1
##cise 1
tease 1
##case 1
burgundy 1
##bot 1
stirring 1
skeptical 1
interceptions 1
marathi 1
##dies 1
bedrooms 1
aroused 1
pinch 1
##lik 1
preferences 1
tattoos 1
buster 1
digitally 1
projecting 1
rust 1
##ital 1
kitten 1
priorities 1
addison 1
pseudo 1
##guard 1
dusk 1
icons 1
sermon 1
##psis 1
##iba 1
bt 1
##lift 1
##xt 1
ju 1
truce 1
rink 1
##dah 1
##wy 1
defects 1
psychiatry 1
offences 1
calculate 1
glucose 1
##iful 1
##rized 1
##unda 1
francaise 1
##hari 1
richest 1
warwickshire 1
carly 1
1763 1
purity 1
redemption 1
lending 1
##cious 1
muse 1
bruises 1
cerebral 1
aero 1
carving 1
##name 1
preface 1
terminology 1
invade 1
monty 1
##int 1
anarchist 1
blurred 1
##iled 1
rossi 1
treats 1
guts 1
shu 1
foothills 1
ballads 1
undertaking 1
premise 1
cecilia 1
affiliates 1
blasted 1
conditional 1
wilder 1
minors 1
drone 1
rudolph 1
buffy 1
swallowing 1
horton 1
attested 1
##hop 1
rutherford 1
howell 1
primetime 1
livery 1
penal 1
##bis 1
minimize 1
hydro 1
wrecked 1
wrought 1
palazzo 1
##gling 1
cans 1
vernacular 1
friedman 1
nobleman 1
shale 1
walnut 1
danielle 1
##ection 1
##tley 1
sears 1
##kumar 1
chords 1
lend 1
flipping 1
streamed 1
por 1
dracula 1
gallons 1
sacrifices 1
gamble 1
orphanage 1
##iman 1
mckenzie 1
##gible 1
boxers 1
daly 1
##balls 1
##ان 1
208 1
##ific 1
##rative 1
##iq 1
exploited 1
slated 1
##uity 1
circling 1
hillary 1
pinched 1
goldberg 1
provost 1
campaigning 1
lim 1
piles 1
ironically 1
jong 1
mohan 1
successors 1
usaf 1
##tem 1
##ught 1
autobiographical 1
haute 1
preserves 1
##ending 1
acquitted 1
comparisons 1
203 1
hydroelectric 1
gangs 1
cypriot 1
torpedoes 1
rushes 1
chrome 1
derive 1
bumps 1
instability 1
fiat 1
pets 1
##mbe 1
silas 1
dye 1
reckless 1
settler 1
##itation 1
info 1
heats 1
##writing 1
176 1
canonical 1
maltese 1
fins 1
mushroom 1
stacy 1
aspen 1
avid 1
##kur 1
##loading 1
vickers 1
gaston 1
hillside 1
statutes 1
wilde 1
gail 1
kung 1
sabine 1
comfortably 1
motorcycles 1
##rgo 1
169 1
pneumonia 1
fetch 1
##sonic 1
axel 1
faintly 1
parallels 1
##oop 1
mclaren 1
spouse 1
compton 1
interdisciplinary 1
miner 1
##eni 1
181 1
clamped 1
##chal 1
##llah 1
separates 1
versa 1
##mler 1
scarborough 1
labrador 1
##lity 1
##osing 1
rutgers 1
hurdles 1
como 1
166 1
burt 1
divers 1
##100 1
wichita 1
cade 1
coincided 1
##erson 1
bruised 1
mla 1
##pper 1
vineyard 1
##ili 1
##brush 1
notch 1
mentioning 1
jase 1
hearted 1
kits 1
doe 1
##acle 1
pomerania 1
##ady 1
ronan 1
seizure 1
pavel 1
problematic 1
##zaki 1
domenico 1
##ulin 1
catering 1
penelope 1
dependence 1
parental 1
emilio 1
ministerial 1
atkinson 1
##bolic 1
clarkson 1
chargers 1
colby 1
grill 1
peeked 1
arises 1
summon 1
##aged 1
fools 1
##grapher 1
faculties 1
qaeda 1
##vial 1
garner 1
refurbished 1
##hwa 1
geelong 1
disasters 1
nudged 1
bs 1
shareholder 1
lori 1
algae 1
reinstated 1
rot 1
##ades 1
##nous 1
invites 1
stainless 1
183 1
inclusive 1
##itude 1
diocesan 1
til 1
##icz 1
denomination 1
##xa 1
benton 1
floral 1
registers 1
##ider 1
##erman 1
##kell 1
absurd 1
brunei 1
guangzhou 1
hitter 1
retaliation 1
##uled 1
##eve 1
blanc 1
nh 1
consistency 1
contamination 1
##eres 1
##rner 1
dire 1
palermo 1
broadcasters 1
diaries 1
inspire 1
vols 1
brewer 1
tightening 1
ky 1
mixtape 1
hormone 1
##tok 1
stokes 1
##color 1
##dly 1
##ssi 1
pg 1
##ometer 1
##lington 1
sanitation 1
##tility 1
intercontinental 1
apps 1
##adt 1
¹⁄₂ 1
cylinders 1
economies 1
favourable 1
unison 1
croix 1
gertrude 1
odyssey 1
vanity 1
dangling 1
##logists 1
upgrades 1
dice 1
middleweight 1
practitioner 1
##ight 1
206 1
henrik 1
parlor 1
orion 1
angered 1
lac 1
python 1
blurted 1
##rri 1
sensual 1
intends 1
swings 1
angled 1
##phs 1
husky 1
attain 1
peerage 1
precinct 1
textiles 1
cheltenham 1
shuffled 1
dai 1
confess 1
tasting 1
bhutan 1
##riation 1
tyrone 1
segregation 1
abrupt 1
ruiz 1
##rish 1
smirked 1
blackwell 1
confidential 1
browning 1
amounted 1
##put 1
vase 1
scarce 1
fabulous 1
raided 1
staple 1
guyana 1
unemployed 1
glider 1
shay 1
##tow 1
carmine 1
troll 1
intervene 1
squash 1
superstar 1
##uce 1
cylindrical 1
len 1
roadway 1
researched 1
handy 1
##rium 1
##jana 1
meta 1
lao 1
declares 1
##rring 1
##tadt 1
##elin 1
##kova 1
willem 1
shrubs 1
napoleonic 1
realms 1
skater 1
qi 1
volkswagen 1
##ł 1
tad 1
hara 1
archaeologist 1
awkwardly 1
eerie 1
##kind 1
wiley 1
##heimer 1
##24 1
titus 1
organizers 1
cfl 1
crusaders 1
lama 1
usb 1
vent 1
enraged 1
thankful 1
occupants 1
maximilian 1
##gaard 1
possessing 1
textbooks 1
##oran 1
collaborator 1
quaker 1
##ulo 1
avalanche 1
mono 1
silky 1
straits 1
isaiah 1
mustang 1
surged 1
resolutions 1
potomac 1
descend 1
cl 1
kilograms 1
plato 1
strains 1
saturdays 1
##olin 1
bernstein 1
##ype 1
holstein 1
ponytail 1
##watch 1
belize 1
conversely 1
heroine 1
perpetual 1
##ylus 1
charcoal 1
piedmont 1
glee 1
negotiating 1
backdrop 1
prologue 1
##jah 1
##mmy 1
pasadena 1
climbs 1
ramos 1
sunni 1
##holm 1
##tner 1
##tri 1
anand 1
deficiency 1
hertfordshire 1
stout 1
##avi 1
aperture 1
orioles 1
##irs 1
doncaster 1
intrigued 1
bombed 1
coating 1
otis 1
##mat 1
cocktail 1
##jit 1
##eto 1
amir 1
arousal 1
sar 1
##proof 1
##act 1
##ories 1
dixie 1
pots 1
##bow 1
whereabouts 1
159 1
##fted 1
drains 1
bullying 1
cottages 1
scripture 1
coherent 1
fore 1
poe 1
appetite 1
##uration 1
sampled 1
##ators 1
##dp 1
derrick 1
rotor 1
jays 1
peacock 1
installment 1
##rro 1
advisors 1
##coming 1
rodeo 1
scotch 1
##mot 1
##db 1
##fen 1
##vant 1
ensued 1
rodrigo 1
dictatorship 1
martyrs 1
twenties 1
##н 1
towed 1
incidence 1
marta 1
rainforest 1
sai 1
scaled 1
##cles 1
oceanic 1
qualifiers 1
symphonic 1
mcbride 1
dislike 1
generalized 1
aubrey 1
colonization 1
##iation 1
##lion 1
##ssing 1
disliked 1
lublin 1
salesman 1
##ulates 1
spherical 1
whatsoever 1
sweating 1
avalon 1
contention 1
punt 1
severity 1
alderman 1
atari 1
##dina 1
##grant 1
##rop 1
scarf 1
seville 1
vertices 1
annexation 1
fairfield 1
fascination 1
inspiring 1
launches 1
palatinate 1
regretted 1
##rca 1
feral 1
##iom 1
elk 1
nap 1
olsen 1
reddy 1
yong 1
##leader 1
##iae 1
garment 1
transports 1
feng 1
gracie 1
outrage 1
viceroy 1
insides 1
##esis 1
breakup 1
grady 1
organizer 1
softer 1
grimaced 1
222 1
murals 1
galicia 1
arranging 1
vectors 1
##rsten 1
bas 1
##sb 1
##cens 1
sloan 1
##eka 1
bitten 1
ara 1
fender 1
nausea 1
bumped 1
kris 1
banquet 1
comrades 1
detector 1
persisted 1
##llan 1
adjustment 1
endowed 1
cinemas 1
##shot 1
sellers 1
##uman 1
peek 1
epa 1
kindly 1
neglect 1
simpsons 1
talon 1
mausoleum 1
runaway 1
hangul 1
lookout 1
##cic 1
rewards 1
coughed 1
acquainted 1
chloride 1
##ald 1
quicker 1
accordion 1
neolithic 1
##qa 1
artemis 1
coefficient 1
lenny 1
pandora 1
tx 1
##xed 1
ecstasy 1
litter 1
segunda 1
chairperson 1
gemma 1
hiss 1
rumor 1
vow 1
nasal 1
antioch 1
compensate 1
patiently 1
transformers 1
##eded 1
judo 1
morrow 1
penis 1
posthumous 1
philips 1
bandits 1
husbands 1
denote 1
flaming 1
##any 1
##phones 1
langley 1
yorker 1
1760 1
walters 1
##uo 1
##kle 1
gubernatorial 1
fatty 1
samsung 1
leroy 1
outlaw 1
##nine 1
unpublished 1
poole 1
jakob 1
##ᵢ 1
##ₙ 1
crete 1
distorted 1
superiority 1
##dhi 1
intercept 1
crust 1
mig 1
claus 1
crashes 1
positioning 1
188 1
stallion 1
301 1
frontal 1
armistice 1
##estinal 1
elton 1
aj 1
encompassing 1
camel 1
commemorated 1
malaria 1
woodward 1
calf 1
cigar 1
penetrate 1
##oso 1
willard 1
##rno 1
##uche 1
illustrate 1
amusing 1
convergence 1
noteworthy 1
##lma 1
##rva 1
journeys 1
realise 1
manfred 1
##sable 1
410 1
##vocation 1
hearings 1
fiance 1
##posed 1
educators 1
provoked 1
adjusting 1
##cturing 1
modular 1
stockton 1
paterson 1
vlad 1
rejects 1
electors 1
selena 1
maureen 1
##tres 1
uber 1
##rce 1
swirled 1
##num 1
proportions 1
nanny 1
pawn 1
naturalist 1
parma 1
apostles 1
awoke 1
ethel 1
wen 1
##bey 1
monsoon 1
overview 1
##inating 1
mccain 1
rendition 1
risky 1
adorned 1
##ih 1
equestrian 1
germain 1
nj 1
conspicuous 1
confirming 1
##yoshi 1
shivering 1
##imeter 1
milestone 1
rumours 1
flinched 1
bounds 1
smacked 1
token 1
##bei 1
lectured 1
automobiles 1
##shore 1
impacted 1
##iable 1
nouns 1
nero 1
##leaf 1
ismail 1
prostitute 1
trams 1
##lace 1
bridget 1
sud 1
stimulus 1
impressions 1
reins 1
revolves 1
##oud 1
##gned 1
giro 1
honeymoon 1
##swell 1
criterion 1
##sms 1
##uil 1
libyan 1
prefers 1
##osition 1
211 1
preview 1
sucks 1
accusation 1
bursts 1
metaphor 1
diffusion 1
tolerate 1
faye 1
betting 1
cinematographer 1
liturgical 1
specials 1
bitterly 1
humboldt 1
##ckle 1
flux 1
rattled 1
##itzer 1
archaeologists 1
odor 1
authorised 1
marshes 1
discretion 1
##ов 1
alarmed 1
archaic 1
inverse 1
##leton 1
explorers 1
##pine 1
drummond 1
tsunami 1
woodlands 1
##minate 1
##tland 1
booklet 1
insanity 1
owning 1
insert 1
crafted 1
calculus 1
##tore 1
receivers 1
##bt 1
stung 1
##eca 1
##nched 1
prevailing 1
travellers 1
eyeing 1
lila 1
graphs 1
##borne 1
178 1
julien 1
##won 1
morale 1
adaptive 1
therapist 1
erica 1
cw 1
libertarian 1
bowman 1
pitches 1
vita 1
##ional 1
crook 1
##ads 1
##entation 1
caledonia 1
mutiny 1
##sible 1
1840s 1
automation 1
##ß 1
flock 1
##pia 1
ironic 1
pathology 1
##imus 1
remarried 1
##22 1
joker 1
withstand 1
energies 1
##att 1
shropshire 1
hostages 1
madeleine 1
tentatively 1
conflicting 1
mateo 1
recipes 1
euros 1
ol 1
mercenaries 1
nico 1
##ndon 1
albuquerque 1
augmented 1
mythical 1
bel 1
freud 1
##child 1
cough 1
##lica 1
365 1
freddy 1
lillian 1
genetically 1
nuremberg 1
calder 1
209 1
bonn 1
outdoors 1
paste 1
suns 1
urgency 1
vin 1
restraint 1
tyson 1
##cera 1
##selle 1
barrage 1
bethlehem 1
kahn 1
##par 1
mounts 1
nippon 1
barony 1
happier 1
ryu 1
makeshift 1
sheldon 1
blushed 1
castillo 1
barking 1
listener 1
taped 1
bethel 1
fluent 1
headlines 1
pornography 1
rum 1
disclosure 1
sighing 1
mace 1
doubling 1
gunther 1
manly 1
##plex 1
rt 1
interventions 1
physiological 1
forwards 1
emerges 1
##tooth 1
##gny 1
compliment 1
rib 1
recession 1
visibly 1
barge 1
faults 1
connector 1
exquisite 1
prefect 1
##rlin 1
patio 1
##cured 1
elevators 1
brandt 1
italics 1
pena 1
173 1
wasp 1
satin 1
ea 1
botswana 1
graceful 1
respectable 1
##jima 1
##rter 1
##oic 1
franciscan 1
generates 1
##dl 1
alfredo 1
disgusting 1
##olate 1
##iously 1
sherwood 1
warns 1
cod 1
promo 1
cheryl 1
sino 1
##ة 1
##escu 1
twitch 1
##zhi 1
brownish 1
thom 1
ortiz 1
##dron 1
densely 1
##beat 1
carmel 1
reinforce 1
##bana 1
187 1
anastasia 1
downhill 1
vertex 1
contaminated 1
remembrance 1
harmonic 1
homework 1
##sol 1
fiancee 1
gears 1
olds 1
angelica 1
loft 1
ramsay 1
quiz 1
colliery 1
sevens 1
##cape 1
autism 1
##hil 1
walkway 1
##boats 1
ruben 1
abnormal 1
ounce 1
khmer 1
##bbe 1
zachary 1
bedside 1
morphology 1
punching 1
##olar 1
sparrow 1
convinces 1
##35 1
hewitt 1
queer 1
remastered 1
rods 1
mabel 1
solemn 1
notified 1
lyricist 1
symmetric 1
##xide 1
174 1
encore 1
passports 1
wildcats 1
##uni 1
baja 1
##pac 1
mildly 1
##ease 1
bleed 1
commodity 1
mounds 1
glossy 1
orchestras 1
##omo 1
damian 1
prelude 1
ambitions 1
##vet 1
awhile 1
remotely 1
##aud 1
asserts 1
imply 1
##iques 1
distinctly 1
modelling 1
remedy 1
##dded 1
windshield 1
dani 1
xiao 1
##endra 1
audible 1
powerplant 1
1300 1
invalid 1
elemental 1
acquisitions 1
##hala 1
immaculate 1
libby 1
plata 1
smuggling 1
ventilation 1
denoted 1
minh 1
##morphism 1
430 1
differed 1
dion 1
kelley 1
lore 1
mocking 1
sabbath 1
spikes 1
hygiene 1
drown 1
runoff 1
stylized 1
tally 1
liberated 1
aux 1
interpreter 1
righteous 1
aba 1
siren 1
reaper 1
pearce 1
millie 1
##cier 1
##yra 1
gaius 1
##iso 1
captures 1
##ttering 1
dorm 1
claudio 1
##sic 1
benches 1
knighted 1
blackness 1
##ored 1
discount 1
fumble 1
oxidation 1
routed 1
##ς 1
novak 1
perpendicular 1
spoiled 1
fracture 1
splits 1
##urt 1
pads 1
topology 1
##cats 1
axes 1
fortunate 1
offenders 1
protestants 1
esteem 1
221 1
broadband 1
convened 1
frankly 1
hound 1
prototypes 1
isil 1
facilitated 1
keel 1
##sher 1
sahara 1
awaited 1
bubba 1
orb 1
prosecutors 1
186 1
hem 1
520 1
##xing 1
relaxing 1
remnant 1
romney 1
sorted 1
slalom 1
stefano 1
ulrich 1
##active 1
exemption 1
folder 1
pauses 1
foliage 1
hitchcock 1
epithet 1
204 1
criticisms 1
##aca 1
ballistic 1
brody 1
hinduism 1
chaotic 1
youths 1
equals 1
##pala 1
pts 1
thicker 1
analogous 1
capitalist 1
improvised 1
overseeing 1
sinatra 1
ascended 1
beverage 1
##tl 1
straightforward 1
##kon 1
curran 1
##west 1
bois 1
325 1
induce 1
surveying 1
emperors 1
sax 1
unpopular 1
##kk 1
cartoonist 1
fused 1
##mble 1
unto 1
##yuki 1
localities 1
##cko 1
##ln 1
darlington 1
slain 1
academie 1
lobbying 1
sediment 1
puzzles 1
##grass 1
defiance 1
dickens 1
manifest 1
tongues 1
alumnus 1
arbor 1
coincide 1
184 1
appalachian 1
mustafa 1
examiner 1
cabaret 1
traumatic 1
yves 1
bracelet 1
draining 1
heroin 1
magnum 1
baths 1
odessa 1
consonants 1
mitsubishi 1
##gua 1
kellan 1
vaudeville 1
##fr 1
joked 1
null 1
straps 1
probation 1
##ław 1
ceded 1
interfaces 1
##pas 1
##zawa 1
blinding 1
viet 1
224 1
rothschild 1
museo 1
640 1
huddersfield 1
##vr 1
tactic 1
##storm 1
brackets 1
dazed 1
incorrectly 1
##vu 1
reg 1
glazed 1
fearful 1
manifold 1
benefited 1
irony 1
##sun 1
stumbling 1
##rte 1
willingness 1
balkans 1
mei 1
wraps 1
##aba 1
injected 1
##lea 1
gu 1
syed 1
harmless 1
##hammer 1
bray 1
takeoff 1
poppy 1
timor 1
cardboard 1
astronaut 1
purdue 1
weeping 1
southbound 1
cursing 1
stalls 1
diagonal 1
##neer 1
lamar 1
bryce 1
comte 1
weekdays 1
harrington 1
##uba 1
negatively 1
##see 1
lays 1
grouping 1
##cken 1
##henko 1
affirmed 1
halle 1
modernist 1
##lai 1
hodges 1
smelling 1
aristocratic 1
baptized 1
dismiss 1
justification 1
oilers 1
##now 1
coupling 1
qin 1
snack 1
healer 1
##qing 1
gardener 1
layla 1
battled 1
formulated 1
stephenson 1
gravitational 1
##gill 1
##jun 1
1768 1
granny 1
coordinating 1
suites 1
##cd 1
##ioned 1
monarchs 1
##cote 1
##hips 1
sep 1
blended 1
apr 1
barrister 1
deposition 1
fia 1
mina 1
policemen 1
paranoid 1
##pressed 1
churchyard 1
covert 1
crumpled 1
creep 1
abandoning 1
tr 1
transmit 1
conceal 1
barr 1
understands 1
readiness 1
spire 1
##cology 1
##enia 1
##erry 1
610 1
startling 1
unlock 1
vida 1
bowled 1
slots 1
##nat 1
##islav 1
spaced 1
trusting 1
admire 1
rig 1
##ink 1
slack 1
##70 1
mv 1
207 1
casualty 1
##wei 1
classmates 1
##odes 1
##rar 1
##rked 1
amherst 1
furnished 1
evolve 1
foundry 1
menace 1
mead 1
##lein 1
flu 1
wesleyan 1
##kled 1
monterey 1
webber 1
##vos 1
wil 1
##mith 1
##на 1
bartholomew 1
justices 1
restrained 1
##cke 1
amenities 1
191 1
mediated 1
sewage 1
trenches 1
ml 1
mainz 1
##thus 1
1800s 1
##cula 1
##inski 1
caine 1
bonding 1
213 1
converts 1
spheres 1
superseded 1
marianne 1
crypt 1
sweaty 1
ensign 1
historia 1
##br 1
spruce 1
##post 1
##ask 1
forks 1
thoughtfully 1
yukon 1
pamphlet 1
ames 1
##uter 1
karma 1
##yya 1
bryn 1
negotiation 1
sighs 1
incapable 1
##mbre 1
##ntial 1
actresses 1
taft 1
##mill 1
luce 1
prevailed 1
##amine 1
1773 1
motionless 1
envoy 1
testify 1
investing 1
sculpted 1
instructors 1
provence 1
kali 1
cullen 1
horseback 1
##while 1
goodwin 1
##jos 1
gaa 1
norte 1
##ldon 1
modify 1
wavelength 1
abd 1
214 1
skinned 1
sprinter 1
forecast 1
scheduling 1
marries 1
squared 1
tentative 1
##chman 1
boer 1
##isch 1
bolts 1
swap 1
fisherman 1
assyrian 1
impatiently 1
guthrie 1
martins 1
murdoch 1
194 1
tanya 1
nicely 1
dolly 1
lacy 1
med 1
##45 1
syn 1
decks 1
fashionable 1
millionaire 1
##ust 1
surfing 1
##ml 1
##ision 1
heaved 1
tammy 1
consulate 1
attendees 1
routinely 1
197 1
fuse 1
saxophonist 1
backseat 1
malaya 1
##lord 1
scowl 1
tau 1
##ishly 1
193 1
sighted 1
steaming 1
##rks 1
303 1
911 1
##holes 1
##hong 1
ching 1
##wife 1
bless 1
conserved 1
jurassic 1
stacey 1
unix 1
zion 1
chunk 1
rigorous 1
blaine 1
198 1
peabody 1
slayer 1
dismay 1
brewers 1
nz 1
##jer 1
det 1
##glia 1
glover 1
postwar 1
int 1
penetration 1
sylvester 1
imitation 1
vertically 1
airlift 1
heiress 1
knoxville 1
viva 1
##uin 1
390 1
macon 1
##rim 1
##fighter 1
##gonal 1
janice 1
##orescence 1
##wari 1
marius 1
belongings 1
leicestershire 1
196 1
blanco 1
inverted 1
preseason 1
sanity 1
sobbing 1
##due 1
##elt 1
##dled 1
collingwood 1
regeneration 1
flickering 1
shortest 1
##mount 1
##osi 1
feminism 1
##lat 1
sherlock 1
cabinets 1
fumbled 1
northbound 1
precedent 1
snaps 1
##mme 1
researching 1
##akes 1
guillaume 1
insights 1
manipulated 1
vapor 1
neighbour 1
sap 1
gangster 1
frey 1
f1 1
stalking 1
scarcely 1
callie 1
barnett 1
tendencies 1
audi 1
doomed 1
assessing 1
slung 1
panchayat 1
ambiguous 1
bartlett 1
##etto 1
distributing 1
violating 1
wolverhampton 1
##hetic 1
swami 1
histoire 1
##urus 1
liable 1
pounder 1
groin 1
hussain 1
larsen 1
popping 1
surprises 1
##atter 1
vie 1
curt 1
##station 1
mute 1
relocate 1
musicals 1
authorization 1
richter 1
##sef 1
immortality 1
tna 1
bombings 1
##press 1
deteriorated 1
yiddish 1
##acious 1
robbed 1
colchester 1
cs 1
pmid 1
ao 1
verified 1
balancing 1
apostle 1
swayed 1
recognizable 1
oxfordshire 1
retention 1
nottinghamshire 1
contender 1
judd 1
invitational 1
shrimp 1
uhf 1
##icient 1
cleaner 1
longitudinal 1
tanker 1
##mur 1
acronym 1
broker 1
koppen 1
sundance 1
suppliers 1
##gil 1
4000 1
clipped 1
fuels 1
petite 1
##anne 1
landslide 1
helene 1
diversion 1
populous 1
landowners 1
auspices 1
melville 1
quantitative 1
##xes 1
ferries 1
nicky 1
##llus 1
doo 1
haunting 1
roche 1
carver 1
downed 1
unavailable 1
##pathy 1
approximation 1
hiroshima 1
##hue 1
garfield 1
valle 1
comparatively 1
keyboardist 1
traveler 1
##eit 1
congestion 1
calculating 1
subsidiaries 1
##bate 1
serb 1
modernization 1
fairies 1
deepened 1
ville 1
averages 1
##lore 1
inflammatory 1
tonga 1
##itch 1
co₂ 1
squads 1
##hea 1
gigantic 1
serum 1
enjoyment 1
retailer 1
verona 1
35th 1
cis 1
##phobic 1
magna 1
technicians 1
##vati 1
arithmetic 1
##sport 1
levin 1
##dation 1
amtrak 1
chow 1
sienna 1
##eyer 1
backstage 1
entrepreneurship 1
##otic 1
learnt 1
tao 1
##udy 1
worcestershire 1
formulation 1
baggage 1
hesitant 1
bali 1
sabotage 1
##kari 1
barren 1
enhancing 1
murmur 1
pl 1
freshly 1
putnam 1
syntax 1
aces 1
medicines 1
resentment 1
bandwidth 1
##sier 1
grins 1
chili 1
guido 1
##sei 1
framing 1
implying 1
gareth 1
lissa 1
genevieve 1
pertaining 1
admissions 1
geo 1
thorpe 1
proliferation 1
sato 1
bela 1
analyzing 1
parting 1
##gor 1
awakened 1
##isman 1
huddled 1
secrecy 1
##kling 1
hush 1
gentry 1
540 1
dungeons 1
##ego 1
coasts 1
##utz 1
sacrificed 1
##chule 1
landowner 1
mutually 1
prevalence 1
programmer 1
adolescent 1
disrupted 1
seaside 1
gee 1
trusts 1
vamp 1
georgie 1
##nesian 1
##iol 1
schedules 1
sindh 1
##market 1
etched 1
hm 1
sparse 1
bey 1
beaux 1
scratching 1
gliding 1
unidentified 1
216 1
collaborating 1
gems 1
jesuits 1
oro 1
accumulation 1
shaping 1
mbe 1
anal 1
##xin 1
231 1
enthusiasts 1
newscast 1
##egan 1
janata 1
dewey 1
parkinson 1
179 1
ankara 1
biennial 1
towering 1
dd 1
inconsistent 1
950 1
##chet 1
thriving 1
terminate 1
cabins 1
furiously 1
eats 1
advocating 1
donkey 1
marley 1
muster 1
phyllis 1
leiden 1
##user 1
grassland 1
glittering 1
iucn 1
loneliness 1
217 1
memorandum 1
armenians 1
##ddle 1
popularized 1
rhodesia 1
60s 1
lame 1
##illon 1
sans 1
bikini 1
header 1
orbits 1
##xx 1
##finger 1
##ulator 1
sharif 1
spines 1
biotechnology 1
strolled 1
naughty 1
yates 1
##wire 1
fremantle 1
milo 1
##mour 1
abducted 1
removes 1
##atin 1
humming 1
wonderland 1
##chrome 1
##ester 1
hume 1
pivotal 1
##rates 1
armand 1
grams 1
believers 1
elector 1
rte 1
apron 1
bis 1
scraped 1
##yria 1
endorsement 1
initials 1
##llation 1
eps 1
dotted 1
hints 1
buzzing 1
emigration 1
nearer 1
##tom 1
indicators 1
##ulu 1
coarse 1
neutron 1
protectorate 1
##uze 1
directional 1
exploits 1
pains 1
loire 1
1830s 1
proponents 1
guggenheim 1
rabbits 1
ritchie 1
305 1
hectare 1
inputs 1
hutton 1
##raz 1
verify 1
##ako 1
boilers 1
longitude 1
##lev 1
skeletal 1
yer 1
emilia 1
citrus 1
compromised 1
##gau 1
pokemon 1
prescription 1
paragraph 1
eduard 1
cadillac 1
attire 1
categorized 1
kenyan 1
weddings 1
charley 1
##bourg 1
entertain 1
monmouth 1
##lles 1
nutrients 1
davey 1
mesh 1
incentive 1
practised 1
ecosystems 1
kemp 1
subdued 1
overheard 1
##rya 1
bodily 1
maxim 1
##nius 1
apprenticeship 1
ursula 1
##fight 1
lodged 1
rug 1
silesian 1
unconstitutional 1
patel 1
inspected 1
coyote 1
unbeaten 1
##hak 1
34th 1
disruption 1
convict 1
parcel 1
##cl 1
##nham 1
collier 1
implicated 1
mallory 1
##iac 1
##lab 1
susannah 1
winkler 1
##rber 1
shia 1
phelps 1
sediments 1
graphical 1
robotic 1
##sner 1
adulthood 1
mart 1
smoked 1
##isto 1
kathryn 1
clarified 1
##aran 1
divides 1
convictions 1
oppression 1
pausing 1
burying 1
##mt 1
federico 1
mathias 1
eileen 1
##tana 1
kite 1
hunched 1
##acies 1
189 1
##atz 1
disadvantage 1
liza 1
kinetic 1
greedy 1
paradox 1
yokohama 1
dowager 1
trunks 1
ventured 1
##gement 1
gupta 1
vilnius 1
olaf 1
##thest 1
crimean 1
hopper 1
##ej 1
progressively 1
arturo 1
mouthed 1
arrondissement 1
##fusion 1
rubin 1
simulcast 1
oceania 1
##orum 1
##stra 1
##rred 1
busiest 1
intensely 1
navigator 1
cary 1
##vine 1
##hini 1
##bies 1
fife 1
rowe 1
rowland 1
posing 1
insurgents 1
shafts 1
lawsuits 1
activate 1
conor 1
inward 1
culturally 1
garlic 1
265 1
##eering 1
eclectic 1
##hui 1
##kee 1
##nl 1
furrowed 1
vargas 1
meteorological 1
rendezvous 1
##aus 1
culinary 1
commencement 1
##dition 1
quota 1
##notes 1
mommy 1
salaries 1
overlapping 1
mule 1
##iology 1
##mology 1
sums 1
wentworth 1
##isk 1
##zione 1
mainline 1
subgroup 1
##illy 1
hack 1
plaintiff 1
verdi 1
bulb 1
differentiation 1
engagements 1
multinational 1
supplemented 1
bertrand 1
caller 1
regis 1
##naire 1
##sler 1
##arts 1
##imated 1
blossom 1
propagation 1
kilometer 1
viaduct 1
vineyards 1
##uate 1
beckett 1
optimization 1
golfer 1
songwriters 1
seminal 1
semitic 1
thud 1
volatile 1
evolving 1
ridley 1
##wley 1
trivial 1
distributions 1
scandinavia 1
jiang 1
##ject 1
wrestled 1
insistence 1
##dio 1
emphasizes 1
napkin 1
##ods 1
adjunct 1
rhyme 1
##ricted 1
##eti 1
hopeless 1
surrounds 1
tremble 1
32nd 1
smoky 1
##ntly 1
oils 1
medicinal 1
padded 1
steer 1
wilkes 1
219 1
255 1
concessions 1
hue 1
uniquely 1
blinded 1
landon 1
yahoo 1
##lane 1
hendrix 1
commemorating 1
dex 1
specify 1
chicks 1
##ggio 1
intercity 1
1400 1
morley 1
##torm 1
highlighting 1
##oting 1
pang 1
oblique 1
stalled 1
##liner 1
flirting 1
newborn 1
1769 1
bishopric 1
shaved 1
232 1
currie 1
##ush 1
dharma 1
spartan 1
##ooped 1
favorites 1
smug 1
novella 1
sirens 1
abusive 1
creations 1
espana 1
##lage 1
paradigm 1
semiconductor 1
sheen 1
##rdo 1
##yen 1
##zak 1
nrl 1
renew 1
##pose 1
##tur 1
adjutant 1
marches 1
norma 1
##enity 1
ineffective 1
weimar 1
grunt 1
##gat 1
lordship 1
plotting 1
expenditure 1
infringement 1
lbs 1
refrain 1
av 1
mimi 1
mistakenly 1
postmaster 1
1771 1
##bara 1
ras 1
motorsports 1
tito 1
199 1
subjective 1
##zza 1
bully 1
stew 1
##kaya 1
prescott 1
1a 1
##raphic 1
##zam 1
bids 1
styling 1
paranormal 1
reeve 1
sneaking 1
exploding 1
katz 1
akbar 1
migrant 1
syllables 1
indefinitely 1
##ogical 1
destroys 1
replaces 1
applause 1
##phine 1
pest 1
##fide 1
218 1
articulated 1
bertie 1
##thing 1
##cars 1
##ptic 1
courtroom 1
crowley 1
aesthetics 1
cummings 1
tehsil 1
hormones 1
titanic 1
dangerously 1
##ibe 1
stadion 1
jaenelle 1
auguste 1
ciudad 1
##chu 1
mysore 1
partisans 1
##sio 1
lucan 1
philipp 1
##aly 1
debating 1
henley 1
interiors 1
##rano 1
##tious 1
homecoming 1
beyonce 1
usher 1
henrietta 1
prepares 1
weeds 1
##oman 1
ely 1
plucked 1
##pire 1
##dable 1
luxurious 1
##aq 1
artifact 1
password 1
pasture 1
juno 1
maddy 1
minsk 1
##dder 1
##ologies 1
##rone 1
assessments 1
martian 1
royalist 1
1765 1
examines 1
##mani 1
##rge 1
nino 1
223 1
parry 1
scooped 1
relativity 1
##eli 1
##uting 1
##cao 1
congregational 1
noisy 1
traverse 1
##agawa 1
strikeouts 1
nickelodeon 1
obituary 1
transylvania 1
binds 1
depictions 1
polk 1
trolley 1
##yed 1
##lard 1
breeders 1
##under 1
dryly 1
hokkaido 1
1762 1
strengths 1
stacks 1
bonaparte 1
connectivity 1
neared 1
prostitutes 1
stamped 1
anaheim 1
gutierrez 1
sinai 1
##zzling 1
bram 1
fresno 1
madhya 1
##86 1
proton 1
##lena 1
##llum 1
##phon 1
reelected 1
wanda 1
##anus 1
##lb 1
ample 1
distinguishing 1
##yler 1
grasping 1
sermons 1
tomato 1
bland 1
stimulation 1
avenues 1
##eux 1
spreads 1
scarlett 1
fern 1
pentagon 1
assert 1
baird 1
chesapeake 1
ir 1
calmed 1
distortion 1
fatalities 1
##olis 1
correctional 1
pricing 1
##astic 1
##gina 1
prom 1
dammit 1
ying 1
collaborate 1
##chia 1
welterweight 1
33rd 1
pointer 1
substitution 1
bonded 1
umpire 1
communicating 1
multitude 1
paddle 1
##obe 1
federally 1
intimacy 1
##insky 1
betray 1
ssr 1
##lett 1
##lean 1
##lves 1
##therapy 1
airbus 1
##tery 1
functioned 1
ud 1
bearer 1
biomedical 1
netflix 1
##hire 1
##nca 1
condom 1
brink 1
ik 1
##nical 1
macy 1
##bet 1
flap 1
gma 1
experimented 1
jelly 1
lavender 1
##icles 1
##ulia 1
munro 1
##mian 1
##tial 1
rye 1
##rle 1
60th 1
gigs 1
hottest 1
rotated 1
predictions 1
fuji 1
bu 1
##erence 1
##omi 1
barangay 1
##fulness 1
##sas 1
clocks 1
##rwood 1
##liness 1
cereal 1
roe 1
wight 1
decker 1
uttered 1
babu 1
onion 1
xml 1
forcibly 1
##df 1
petra 1
sarcasm 1
hartley 1
peeled 1
storytelling 1
##42 1
##xley 1
##ysis 1
##ffa 1
fibre 1
kiel 1
auditor 1
fig 1
harald 1
greenville 1
##berries 1
geographically 1
nell 1
quartz 1
##athic 1
cemeteries 1
##lr 1
crossings 1
nah 1
holloway 1
reptiles 1
chun 1
sichuan 1
snowy 1
660 1
corrections 1
##ivo 1
zheng 1
ambassadors 1
blacksmith 1
fielded 1
fluids 1
hardcover 1
turnover 1
medications 1
melvin 1
academies 1
##erton 1
ro 1
roach 1
absorbing 1
spaniards 1
colton 1
##founded 1
outsider 1
espionage 1
kelsey 1
245 1
edible 1
##ulf 1
dora 1
establishes 1
##sham 1
##tries 1
contracting 1
##tania 1
cinematic 1
costello 1
nesting 1
##uron 1
connolly 1
duff 1
##nology 1
mma 1
##mata 1
fergus 1
sexes 1
gi 1
optics 1
spectator 1
woodstock 1
banning 1
##hee 1
##fle 1
differentiate 1
outfielder 1
refinery 1
226 1
312 1
gerhard 1
horde 1
lair 1
drastically 1
##udi 1
landfall 1
##cheng 1
motorsport 1
odi 1
##achi 1
predominant 1
quay 1
skins 1
##ental 1
edna 1
harshly 1
complementary 1
murdering 1
##aves 1
wreckage 1
##90 1
ono 1
outstretched 1
lennox 1
munitions 1
galen 1
reconcile 1
470 1
scalp 1
bicycles 1
gillespie 1
questionable 1
[...]
